[PAD]
unused0
unused1
unused2
unused3
unused4
unused5
unused6
unused7
unused8
unused9
unused10
unused11
unused12
unused13
unused14
unused15
unused16
unused17
unused18
unused19
unused20
unused21
unused22
unused23
unused24
unused25
unused26
unused27
unused28
unused29
unused30
unused31
unused32
unused33
unused34
unused35
unused36
unused37
unused38
unused39
unused40
unused41
unused42
unused43
unused44
unused45
unused46
unused47
unused48
unused49
unused50
unused51
unused52
unused53
unused54
unused55
unused56
unused57
unused58
unused59
unused60
unused61
unused62
unused63
unused64
unused65
unused66
unused67
unused68
unused69
unused70
unused71
unused72
unused73
unused74
unused75
unused76
unused77
unused78
unused79
unused80
unused81
unused82
unused83
unused84
unused85
unused86
unused87
unused88
unused89
unused90
unused91
unused92
unused93
unused94
unused95
unused96
unused97
unused98
unused99
[UNK]
[CLS]
[SEP]
[MASK]
d
c
s
##on
p
##er
a
##to
##re
i
##ta
##en
##ti
##la
di
##el
##ri
##ra
e
m
##li
##te
##le
n
##un
##ia
##ro
f
##an
##ion
in
##ss
del
v
##he
co
##in
un
la
##lo
g
##qu
##or
t
##zion
con
per
il
##ca
qu
al
##ar
##es
##co
che
b
##io
##men
o
##do
da
##zione
##is
##et
ri
##no
su
l
##ma
com
##ci
non
##mo
##di
##ere
##si
h
de
ma
-
le
##ce
##ono
##va
si
ca
##gli
##za
se
pro
po
##po
è
##mi
nel
##sa
re
##vo
an
so
##tu
##tto
1
##ch
##da
sta
##vi
##era
della
una
fa
pre
pa
##gg
##bi
tu
##st
##ve
##na
##mp
##al
##tà
##che
do
##..
##tti
##bb
mo
##se
no
##fi
##pp
##de
##...
##ni
##uo
##so
ques
(
2
lo
mi
##ter
ha
pi
##cia
##ssi
##ione
##ran
##sp
##mente
##sso
par
##mento
sono
vi
ci
##tra
me
dal
##tta
##ente
te
tra
u
ne
##ga
##ero
"
##ina
##mb
sp
##eri
##sta
##ui
vo
##enti
##zioni
##go
##zza
##sti
##me
dei
ra
ch
sa
##tro
##ano
li
dell
##ru
##cu
gi
pri
come
##ale
##ver
##ff
##ssa
##ali
ti
##ne
##ten
##lu
delle
##zz
alla
##tori
##iamo
##tre
##ene
sul
##glio
##du
ta
ba
##zia
##pa
##00
##ini
##etto
##ando
gli
##cc
for
fi
##gu
ho
##sto
più
##tri
##ie
##enza
##one
19
quel
questo
##uni
##gno
pu
ar
##uto
##ine
##orta
##ino
comp
##man
du
##ggi
av
ess
##ria
##chi
ad
va
##rio
##con
all
##ul
na
##sse
##tura
nella
##ggio
to
anche
##bili
##enta
##etti
imp
##anno
##pi
ai
##pe
##cco
app
##fica
##oni
##gi
##sc
##uro
3
essere
##tico
##ani
suo
ro
##gra
##dere
##for
##menti
gra
##ssione
cosa
col
chi
ter
##etta
k
ven
cor
cre
##bile
##tte
w
sc
stato
j
ed
##ona
parte
fu
tro
##per
##zi
##glia
mol
##esi
##ven
##cce
qual
##mpo
##dia
##bbe
##ele
cui
##ba
solo
##gna
euro
ve
##gni
##der
pia
##are
##endo
##01
dire
inter
era
##hi
ser
##sci
##ppo
abb
##lare
##zio
##cato
gu
cer
pen
questa
ris
lavo
ric
bene
degli
##tere
##ché
##mma
sua
##zzo
##tare
prima
##tel
sia
##stra
fo
##ese
nuo
vis
##ffi
dalla
io
loro
alle
##ze
##tica
at
prop
giu
spe
consi
gen
ver
mon
en
##nte
##um
due
qui
gio
##esti
pres
pers
##lta
##ioni
tutti
##ron
tutto
4
##anti
quando
##lica
car
##tore
dov
man
##lan
or
##tali
europe
##vis
bu
comuni
##uta
##bo
fatto
sei
##ge
stati
ste
200
##missione
##dio
cos
##ren
ave
5
mar
##gia
##ello
hai
##mina
gran
##lla
hanno
gior
anni
au
ga
##cch
dopo
##ccia
rela
am
far
uno
fare
##forma
men
##gn
contro
uni
dove
##cca
##uti
##anto
201
dis
##iso
chia
commissione
##sione
sulla
semp
##tato
bo
##ena
##ur
mio
##).
molto
nell
##pera
allo
##ck
##cio
poli
##cora
##il
qua
##dente
secon
be
##via
fin
##ho
##),
##orto
##ha
disp
##tiva
##cono
lu
##que
##dre
tuo
cons
##iste
quello
conc
reg
##indi
fe
succe
##une
sca
ora
cen
##tua
|
sco
##tivo
inf
go
##zie
##'.
can
bi
prodo
indi
##stitu
##vano
##rebbe
##stri
può
##zo
##llo
6
altri
san
##ing
##lmente
porta
##am
sal
via
##ord
es
tre
##ante
tempo
spa
servi
trova
pubb
perché
alc
##stro
tor
##rie
nei
stra
el
##uno
##",
fra
##tin
##gui
acc
mia
poss
poi
ancora
pun
##ette
questi
fon
##bilità
##tan
##cis
quanto
conf
##scia
st
ni
diver
così
##ltre
quali
stu
.
lib
##ccu
memb
##ggia
sotto
##ura
esp
casa
vuo
##".
##min
quindi
##colo
##elli
aff
mer
lei
fran
dall
and
##ste
anda
cri
tratta
lavoro
ogni
ok
parla
7
##tt
##rare
##mer
detto
modo
##pre
mai
##zionale
vita
ten
possi
##posi
atti
stata
##lizza
##età
##cip
risp
consiglio
sempre
##ella
199
##',
##ttu
forma
9
grazie
ini
parti
##pri
capi
num
##zzi
pren
##ggiun
mu
cir
##qua
rego
##ian
prin
svi
pe
##rante
lui
abbiamo
##ard
informa
nelle
sicu
##ttura
prog
##rono
sin
uti
itali
##mbre
##elo
##ato
importa
##19
##dera
senza
sen
siste
##istra
potre
vol
er
8
##ciale
##sco
gia
comple
##anza
sì
##fo
off
##tale
piu
##esa
##mon
quella
mis
##ble
raga
##stan
##tamente
##stru
min
dai
asp
numero
dio
##ana
senti
##rato
##tivi
ce
ac
##tter
##tiche
secondo
##vere
volta
cono
##cen
z
##met
0
perche
cit
val
18
signo
##eni
noi
##ure
10
produ
#
stru
rapp
tras
siamo
cam
svilu
grande
##arda
##fa
##mpa
##us
##vero
genera
tutta
##denti
##ordo
proprio
proce
miglio
fer
##th
cal
primo
sti
maggio
ru
r
##res
dav
##tive
##razione
regola
oh
##arti
viene
condi
membri
##una
##rig
fino
tua
##alizza
##feri
##ticolo
##rà
ami
cu
##tor
progra
arri
allora
##gione
presi
##gono
inc
stan
##fe
ese
##ll
nor
##chia
gru
dice
##vità
ul
proble
stori
fami
ness
fun
##rei
città
colle
cla
partico
##ghi
lascia
##stre
##esta
nuovo
##pra
ag
##posta
##sia
pubbli
nece
super
contin
##enze
bar
##mini
##lazione
##ber
europea
mondo
tutte
puo
stesso
##amo
##usa
altre
##menta
situa
quale
don
##glie
##etro
##vol
##isce
##van
pag
##teria
già
##cina
##imp
deve
##nto
eff
##cosa
suoi
fuo
presenta
##lli
tec
—
##tten
uo
decis
mentre
##ranno
mor
caso
persone
passa
##ritto
pensa
princip
##cci
picco
##rica
lun
##quis
comunità
prodotti
cosi
comune
sar
nome
liv
##unque
aver
sistema
beh
fine
##bito
##vole
##vato
y
mili
cli
##bu
para
##gani
ass
inizia
segui
##dra
##lle
econo
15
##ssimo
entra
qualcosa
giorno
##ita
semb
##cchi
##gio
##ulti
198
##inter
durante
##ggior
12
ele
voglio
##elle
fre
possono
posso
altro
vero
cara
conta
“
##zionali
medi
sopra
posi
intere
ino
bamb
camp
##.1
aveva
##ziona
##pen
auto
##almente
##ei
davvero
dello
##eli
ricer
paesi
chiama
x
sto
favo
##sie
ban
rigu
economi
ben
##rico
##ster
posto
##ccio
div
##ciali
biso
rip
bra
des
risul
ehi
##dis
tale
punto
##erie
pes
##sioni
base
##ffici
informazioni
##ccupa
materia
tipo
##erva
lin
agli
speci
scu
niente
por
sai
##anta
##mpio
##ell
nostro
##gh
##anzia
contra
##rezza
alcuni
##cità
##tenza
tele
colo
prote
disponi
ado
queste
opera
ade
##qui
##mmi
##au
##care
##unione
##lm
inoltre
met
##gua
##tion
sui
##dono
cia
##rsi
gruppo
ge
##mmo
##ris
##spi
##gue
programma
vin
utilizza
##000
europeo
##ttiva
##vin
##eno
chie
##gre
necessa
##ari
popo
mani
stai
interna
##iore
centro
jo
esa
usa
oggi
fuori
,
forse
cose
##ndo
desi
##ttore
dalle
##denza
def
rin
presidente
##tici
vuoi
«
ricor
##fer
tri
modi
doman
##dro
momento
nuova
##app
camb
##tera
##esco
ricerca
sembra
andare
visto
##ire
##eter
certo
##ton
veri
##cendo
sarà
natura
padre
##.2
voi
conte
##nti
##line
##tati
legg
loca
##bbero
ciò
##meno
##atti
continu
on
##ganizza
20
17
##gato
particolare
rappres
##tolo
perio
negli
possibile
politica
##sieme
attra
vole
##ettore
circa
##ppa
##lità
finanzia
##spon
sviluppo
##opera
servizi
##ista
avere
vic
##dato
16
aspetta
puoi
applica
asso
favore
conten
famiglia
##sh
##ture
livello
##fici
##mia
oltre
rappresenta
fini
diff
erano
##mar
##gere
mari
tran
sulle
14
##ke
##enzia
sull
##edi
–
##cri
cap
serie
cin
causa
##ort
bisogno
ren
disposi
abi
##bbiamo
##gnor
##vono
prodotto
mercato
##ist
devo
conse
soci
##ghe
sor
foto
nostra
regolamento
##tano
ulti
sarebbe
##pere
##tazione
ins
sue
insieme
gover
the
terra
molti
commer
rice
aggiun
inten
##lato
signor
##articolo
##azione
edi
torna
##ad
verso
persona
appro
qualc
successo
piano
##ssion
trasp
##dendo
##ts
##erci
compa
##ry
##mine
##mpi
setti
##tario
profe
faccia
##isti
13
person
##mmag
meno
rec
soli
ja
raggiun
otten
##torio
##acc
pra
##cchia
##ranti
##luzione
scri
settore
11
credo
orig
parlamento
fonda
dati
##rata
##rai
##ssima
##duzione
ann
anno
attività
##ger
##mu
qualche
storia
luo
197
meglio
film
##vare
diventa
##bre
racco
##inale
##-1
seguito
hotel
opp
relazione
dia
##son
appar
bre
realizza
generale
guarda
presente
periodo
line
segu
##sce
##lin
giorni
##cano
franc
abbia
sicurezza
costitu
considera
guer
attraver
figlio
incon
signi
musi
acco
##mana
ide
pote
dovre
rep
volte
##lari
esempio
gui
##at
signore
successi
media
defini
##dica
sempli
##ute
sol
vedere
##0,
vor
ali
##ac
##gan
autori
paese
paro
ecco
##mato
potrebbe
pubblica
rispetto
##fon
seconda
sci
den
qualcuno
ord
##vamente
##bietti
istitu
assi
##est
:
##ministra
##0.
uffi
cio
sette
capo
##rlo
decisione
fosse
[
##be
apri
##rre
##enda
##esto
problema
italia
##stanza
##venti
state
dobbiamo
##labo
##all
tuttavia
##lore
inve
##cchio
significa
##erà
km
'
norma
direttiva
acce
##lio
##rti
forni
##posto
tecni
##altra
società
classi
##scita
gre
tanto
ani
richi
ore
caratter
gesti
cambia
chiesa
servizio
citta
prece
##cro
##orso
terri
##land
##orti
male
cul
##uso
ii
condizioni
limi
mod
venne
##-2
pron
##lia
##ito
vista
impre
##altro
data
invece
##iori
importante
nazionale
organizza
25
madre
vuole
produzione
##'?
adesso
##ttamente
##ka
##sten
##and
sito
dato
riu
possiamo
nessuno
##dita
sch
lavora
posizione
##logi
corso
##str
diversi
24
##gare
##==
##eria
(1
##cere
evi
stessa
scon
##ardo
##rmi
##stica
##ane
modifica
amico
controllo
##cazione
stabili
##arsi
corre
##2,
##ttro
otto
spo
ruo
##iace
desti
##ssioni
sud
scel
##tari
atten
##cipa
immag
lon
bri
##vesti
##telli
##cando
##ok
devi
dan
30
macch
struttura
##stante
im
ero
indu
spi
##versi
squa
ov
ambi
##accordo
guerra
lungo
1.
##ly
troppo
##chio
quelli
pari
##scri
##entra
arti
inte
##coli
quattro
diritto
comi
##trib
forza
andiamo
##com
problemi
luogo
##tata
cro
##uomo
presso
campo
ex
##2.
##cee
##cra
bru
##ttere
mano
file
avuto
mostra
aiuta
alcune
qualità
riso
progetto
##3.
nu
faci
fai
nostri
dicembre
quelle
##3,
lega
tali
conosc
##orre
attraverso
docu
registra
confer
new
supp
proposta
otti
giorna
##1,
appena
musica
strada
##volo
dichia
acquis
corpo
morte
nove
pla
adotta
##mani
quest
##siasi
##des
##dini
##199
parlare
asco
partecipa
previs
qualsiasi
ger
##ulla
giugno
anima
letto
elet
sociale
offer
giovan
##taria
prepa
##5,
studio
##/2
##sponsa
attu
##onore
##ay
prezzo
quanti
facendo
##pro
ori
centra
ber
tal
##este
conto
bian
##sca
sape
##tr
poter
##ue
##diamo
effetti
scuo
##mane
##entale
uomo
subito
##mbi
uomini
##grafo
##trice
bal
##tello
cuo
misure
##euro
##tamento
ricono
lan
impe
conclu
##messo
messa
grandi
##zzazione
stre
we
aper
trovare
##vento
quasi
anti
testa
##fiche
oss
vari
tradi
vostro
deter
totale
ciao
bambini
##ty
però
milioni
responsa
##istenza
##gle
dip
ucc
##ppe
devono
vengono
donna
spesso
prendere
##ld
##voli
##mano
meri
##4,
set
grado
fron
of
##visione
pare
##struzione
comitato
##deo
cazzo
destina
##gen
singo
##val
##logia
dec
##naio
diri
##bbia
villa
rich
dovrebbe
##rane
siano
##tero
##poli
##ppi
##ppia
situazione
fis
##stria
##col
valuta
##cati
piace
##su
bel
svol
...
termine
##ssero
detta
##vata
##rire
##ki
##tanti
”
##ut
miei
##6,
sie
buon
mesi
##strui
##--
##rando
propri
inclu
noti
ucci
stagione
##stico
/
tur
semplice
pis
##dare
##lina
sapere
forte
##ner
infatti
secolo
farlo
garanti
capa
compren
luglio
giusto
regno
avete
tecno
##mici
##fico
##zze
##moni
##8,
discu
cerca
##operazione
##av
uniti
testi
##mbo
articolo
penso
minuti
##mentare
##dice
##9,
nello
velo
##fia
buona
##ai
##tono
lett
necessario
pensi
##bilmente
22
inse
##ficazione
maggiore
conce
assicu
ges
internazionale
21
riferi
poco
preo
possibilità
##ag
libera
tar
mondia
##gie
##'...
credi
mini
##ubb
paragrafo
migliore
abba
##ph
riguarda
real
notte
zona
membro
##interno
##7,
dispiace
obietti
##mica
€
esc
##dati
mare
ragione
##more
maggior
differ
titolo
##uncia
formazione
compre
##ttutto
##5.
ameri
perf
regione
nuovi
##ordina
cultura
die
vicino
##dri
##len
gennaio
nord
vera
resta
processo
comunque
governo
camera
dagli
visi
geo
peri
(2
##ismo
trovato
##mm
diverse
##ft
##4.
sicuro
diritti
minis
settembre
##alle
roma
linea
procedu
##ko
is
scusa
avrebbe
dimo
proba
gioco
video
senso
##rati
ecc
##gazione
cinque
relativa
##don
196
basta
##uma
##hai
##gne
furono
preso
usci
profession
##gis
ruolo
descri
##rd
preno
donne
##6.
##mba
ener
dif
##lano
&
##lie
gente
##it
gro
alb
##torno
ada
rico
trattato
lingua
almeno
##veni
##tenti
##poste
##vati
partire
utili
##net
##mania
soprattutto
corte
crea
confor
nego
prov
sera
sola
##30
("
lettera
porto
bor
resi
collega
##tar
##50
segre
cuore
spiri
##ora
nulla
siete
bilan
riusci
segna
##minato
effet
impo
##media
##isco
vio
alber
##lar
amministra
visita
##dici
marzo
pass
##lati
##gliere
risultati
diven
##bbra
pazi
##7.
associa
##dy
rif
nuove
macchina
##nza
saranno
meta
nazionali
volu
genere
repubb
##vani
tipi
contrib
imprese
interessa
ogg
verifica
principale
##8.
molte
amici
##cer
##1.
moglie
mamma
novembre
##versa
res
ragazzi
costrui
##turo
##tuale
vorrei
esi
paga
##ork
##tuto
##ionale
comin
sara
mas
##ttori
##tture
sf
us
signora
##mare
avre
esclu
fanta
##den
gratu
glo
confron
##can
dimen
squadra
##hn
##minare
manten
affi
##trimon
##ide
##rale
##ccupazione
concer
vostra
vai
ka
punti
progetti
accetta
##iscono
misura
simi
##bbli
compi
dovuto
giusti
investi
rapi
feli
ricev
100
are
##ultima
iso
pubblico
ottobre
##vamo
##lto
##cle
eli
corri
deci
specie
##lata
diffici
invi
domanda
##eti
spie
prova
francese
##use
##auto
dentro
raff
finale
##mpagna
sede
mezzo
settimana
collabo
italiano
scuola
provin
figli
dare
##duto
riti
##ler
bella
##rin
tuoi
terre
azi
prezzi
##esp
valore
he
mondiale
spazio
compet
cura
continua
##europa
civi
offre
##tate
telef
##tò
gestione
pon
sare
circo
sele
##cche
luce
industri
note
quadro
##art
##bbraio
primi
cast
impa
conosci
ir
##pia
sh
guida
wi
giovani
##ultimo
##nova
ragazza
cate
prego
funziona
1,
viaggio
##9.
propria
ospi
##arci
##cor
inca
ur
trov
egli
febbraio
camere
distri
asse
ascolta
legge
caratteris
cooperazione
aiuto
sve
##rò
passato
piccolo
##rina
soldi
sba
situato
##10
centrale
abitanti
##ori
economica
##zzato
francia
repubblica
op
consul
23
##armi
nessun
##mette
##dizione
ulter
possa
##vio
##tente
##ddis
*
quo
blo
bio
ju
##spe
194
atta
demo
##tanto
##ica
accesso
richiesta
papa
essa
serve
strate
ester
protezione
agrico
##cente
basa
formu
##acqua
rive
nonché
promo
aprile
##smo
meto
est
rima
essi
##ficio
personale
##lando
##rismo
coin
studi
gesù
libro
sensi
fratello
##tana
stare
questione
liber
proprie
richie
muo
mala
##")
campion
esperi
eserci
concor
disponibile
futuro
##bri
##minazione
face
pala
risor
==
legis
rila
##volta
territorio
veni
trattamento
arre
consegu
##stin
##lino
casi
pan
rispon
stel
##ltanto
##mio
##ardi
dimostra
stanno
##ffica
##ada
##tendo
presta
princi
bro
soltanto
##les
cristi
avanti
temp
##rate
pens
##/9
sce
##lori
versione
sostitu
##erop
oppure
31
pur
ale
wil
principali
##ramente
superiore
polizia
europa
reli
##gente
disposizioni
bambino
comba
acca
rile
##mico
28
catego
preve
ama
##utare
50
bilancio
trasferi
##gon
john
parola
##ati
integra
2.
racc
infer
accordo
##inizio
fondo
##damento
##viso
##licazione
alta
##vid
conti
comporta
indica
vene
importanti
piacere
##unità
##rano
scopri
sociali
web
fir
maga
##ny
moda
mese
ingle
cercando
rete
capito
migliori
realtà
##ziale
##ass
ago
risto
disc
##ware
pratica
##tur
frequ
scritto
giro
stiamo
giochi
affer
accor
lavori
ragazzo
mal
fanno
alto
29
yo
##tando
fronte
posti
affron
osserva
##mettere
presto
autorità
artico
cel
27
##ccasione
archi
##ffer
##arte
cristo
##mentazione
ultimi
dipen
teso
##20
testo
##ol
capacità
riferimento
##gnato
##mati
##arlo
spia
##ccato
##vvi
##wn
fru
##canza
seguenti
entro
ab
mangia
##cy
2,
metri
sosten
abbastanza
riman
poiché
fissa
scelta
je
navi
incontra
##perto
##ang
parole
##gano
figlia
##rello
##lti
##ya
ferro
##durre
animali
dimenti
pesca
disponibilità
rifi
##rla
ottenere
avevo
##vate
obbli
voglia
pace
né
programmi
##uale
##nato
sistemi
##gioni
oli
motivo
moder
##dì
azioni
esso
invia
26
##11
precedente
popolazione
##ambi
pol
##ley
##80
sov
##mbe
##rci
bagno
europee
soggior
muse
faccio
comincia
sosp
identi
##mentari
pubblicato
acqua
##ende
trasporto
dor
difficile
!
sentito
##ser
##ggiare
##resso
raccon
morto
soddis
##unica
rapporto
sangue
cava
##applicazione
risorse
figu
##ambito
fem
##mite
probabilmente
movi
ecce
##ir
##tezza
eventi
economico
equi
riconosci
##unto
##uter
piccola
terzo
##ficato
##tino
cittadini
pian
pagina
##ker
##ccup
intro
##ssere
##genza
##talia
lì
prom
costi
amp
germania
presenti
gioca
deri
tenta
valutazione
aiuti
occupa
politiche
uso
ries
lar
comunicazione
##bina
volevo
##....
##visi
+
riten
norme
offerte
dar
idea
avven
origina
##segui
cucina
vanta
##dotto
pericolo
fabb
clienti
sogg
##versità
necessi
presenza
##amente
##data
vedi
##trimonio
##logo
locali
vendita
ciasc
venire
parere
##onia
potere
piedi
ep
##venzione
##formazione
##op
chiamato
rica
voce
disa
pochi
195
costruzione
##hotel
santa
speciali
##anche
schi
sub
fort
##arono
##erai
giudi
##ume
profon
vieni
##raggio
commi
carta
##importa
##ordine
soluzione
##mail
##im
direttamente
##lazioni
pertanto
obiettivi
##dine
##cha
speciale
nono
colore
illu
esist
##ttor
giapp
ucciso
maria
concentra
nostre
monta
tesoro
conserva
riporta
spetta
interpre
tornare
relativo
cari
fase
risposta
##onorevole
provincia
clu
##mità
bello
aere
dolla
occhi
internet
regi
fondamen
vitto
scher
assolu
##dità
interno
##onica
##tazioni
##».
vede
##non
sala
za
##40
opport
settori
##gine
##isola
stazione
preferi
convin
##uri
sfor
traduzione
tru
##dito
##ardia
stile
accu
riguardo
emi
##zzata
distru
scopo
modello
##ja
%
sho
##metri
##coltà
poten
profi
##mata
termini
ufficiale
##verti
superfici
stampa
##the
appare
breve
ah
elementi
##allo
completamente
eh
micro
##duta
locale
indo
##posito
gruppi
rischio
wa
##dd
##ltura
agosto
conne
avvi
varie
disponibili
soste
##gge
pazienti
tramite
spor
chiesto
pronto
##aria
##iti
svilupp
##bur
##genti
aspetti
crede
okay
insta
giuri
portato
relative
##ressi
mino
proprietà
procedura
##ambiente
teo
tito
succede
facciamo
##rere
lotta
##cin
ang
tardi
entrambi
messo
##by
radio
corrispon
##terna
caratteri
carri
##vidu
##cola
nonostante
##tis
infine
cha
inglese
sper
carrello
##posizione
##vie
volon
##tevi
relazioni
##zzare
regioni
opere
eri
sugg
strumenti
garantire
geni
piani
unico
codice
caratteristiche
legno
##tina
40
##od
scar
##olo
manif
creare
articoli
##grafia
colpi
effettua
##shi
bigli
tv
##stiche
##ciò
elettri
##alisi
##ttosto
sostegno
pensavo
applicazione
##ggere
mone
massimo
?
##tuali
sore
ton
salute
giovane
quantità
piuttosto
##gliato
puli
comunitario
##teri
costo
effica
##eserci
tea
##dan
##poca
online
stand
nem
##wi
inseri
##terà
##ssia
paura
son
canz
monte
club
nota
##60
chiu
##bra
quei
##mai
memo
pure
tema
sche
##dale
##car
mina
##area
giun
prende
raggiungere
0,
mettere
multi
dra
th
raccoman
##eroporto
certi
lista
##mes
vivere
##vera
##/8
3.
medio
fatta
##stanze
##indu
vali
compon
contatto
pie
commercio
##cla
##landa
pot
sfi
aggior
campionato
trib
italiana
vedo
attenzione
design
##wa
##renza
turi
treno
facile
dietro
nemmeno
fede
##ttina
malatti
##stretto
nessuna
erro
partecip
milano
messaggio
precis
sezione
torn
atte
crescita
##mme
bianco
coper
193
##ms
dollari
fatti
controlla
avevano
resto
zo
dici
quell
cine
batta
ordina
spagna
farma
giovanni
specia
soft
intra
tempi
•
##ment
necessità
af
belli
(19
”.
avrei
vado
proposte
##uito
##lizzazione
banca
visu
unito
tecnica
formula
lato
dico
spirito
riguard
esclusi
4.
immo
lavorare
york
ordine
mente
##ky
usare
##ed
metà
giustizia
##bato
capire
individu
##tuazione
mie
coinvol
##12
beni
##fficiente
recen
potuto
davanti
mecc
ricevuto
costa
oggetto
vesti
consuma
felice
veder
peso
##llare
quar
anch
materiale
##dimento
impie
interess
famo
democra
##inte
marito
medicina
soggiorno
naturale
indipen
deli
entrare
ringra
lea
##lib
stessi
##ameri
cele
andre
##gica
contatta
cioè
settimane
scor
##enco
competi
collo
passo
disposizione
sepa
sole
##isci
home
telefono
sposa
domani
##mere
dise
har
andata
varia
perso
##we
federa
caccia
##ssimi
capisco
##enziale
canc
vecchio
diretto
belle
prender
blu
dieci
vitti
immedia
estre
massima
stava
##anze
massa
superficie
unità
##inf
descrizione
deciso
scamb
presti
pubblici
gri
##cal
##oro
glob
affa
proveni
pelle
##idea
##alb
attualmente
##xi
andato
strumento
scena
##eranno
funzione
recu
domande
dol
sani
europei
sconfi
##zzando
contempo
risultato
pensare
##tribu
classifica
char
amore
##into
merito
##eso
alberghi
spese
##ers
complessi
##organizza
basso
direzione
roman
##sf
disco
materiali
occ
lavoratori
gara
ko
software
immagini
##attività
cas
supera
##toria
diffi
modalità
interro
salve
consider
permette
confe
affari
##erti
assa
pensato
part
##clo
giornata
festa
preoccupa
##cli
portare
##lea
verità
##gati
192
progetta
##----
album
fed
creazione
##tamenti
##chè
palazzo
apparten
veramente
stanza
##cani
##tela
dimensioni
##ffa
durata
numerosi
dunque
reale
##lora
##nero
venezia
orienta
##ws
coordina
libero
appo
neanche
migliorare
lasciato
seguente
evitare
parlato
visualizza
santo
vediamo
valori
fal
vir
indietro
fuoco
##italia
agg
mm
classe
carriera
##int
##tante
agri
##mis
sali
nero
ted
recente
##id
##deva
##industria
consenti
pagamento
##cata
libertà
##nale
##ins
riserva
regime
##esione
dettagli
scienti
rifle
diavolo
appartamento
finito
uscire
prosp
colpa
principio
piena
tour
et
proto
##ssibile
tue
##90
personali
risa
esiste
##voluzione
##rizzo
3,
##lici
zone
occasione
quarti
stavo
computer
successivamente
##ttivo
##mone
spagno
##enso
colon
##eremo
leggi
##-0
fri
mona
raffor
medico
cercare
##posti
##venta
##nia
passare
cellu
carica
caff
red
vei
inci
##metti
wo
##larmente
risoluzione
case
incre
tedes
mediante
##cre
intera
maggiori
##etra
giornali
dicendo
sost
##tch
##gata
##damente
lunga
##dero
fortuna
xi
2007
hi
##ting
partecipazione
##umo
iscri
fan
##logie
##16
abband
##tec
##ruzione
##econo
sy
##dina
##amore
##as
parco
##70
##ppiamo
genitori
usato
fred
##mamente
##rne
internazionali
fondi
geova
verde
posta
jack
promuo
##glior
documenti
diparti
popolo
##tone
piazza
scarica
piccole
##32
dir
##temi
museo
##ls
cata
##ttuale
livelli
##up
magari
##razioni
responsabilità
condivi
##unico
ana
sugli
mappa
win
distanza
diventare
piccoli
storico
standard
##organizzazione
##ssemb
ulteriori
ristorante
digi
##tarie
##uire
dottore
filo
sb
episo
miglia
organi
potete
ospiti
##gore
carattere
salva
dedica
bla
sottoline
prime
vivo
ritro
##biettivo
##autori
privato
umani
tren
impian
garan
ormai
premio
dep
##aiuto
##ico
professionale
campagna
##sera
contenuto
conosce
immobili
##ener
morta
##cale
##3)
##ung
sappiamo
##neo
categoria
perdere
##uffi
##umi
regionale
vive
sentire
##ct
dovremmo
disse
inferiore
conoscenza
##ento
##vista
##vocato
##alla
intorno
alcun
annun
##ciare
stupi
chiaro
##matica
informazione
sesso
capitale
matrimonio
reali
basi
migliora
prove
##ficare
van
bib
##ua
zi
età
fla
ritorno
fossi
interesse
##cciaio
mandato
miglior
##derà
ricorda
»
##ave
dani
attre
studia
famiglie
##vale
peggio
aggiorna
##dano
##cuzione
rivol
metodo
sorella
##35
singolo
trasc
potrebbero
##unale
ieri
##cò
civile
##minata
strutture
;
nucle
permet
##cino
passe
lunghe
simile
##cesi
difficoltà
even
##scon
stelle
esten
battaglia
##rone
combina
onore
##15
##cento
partito
star
##arla
dovrei
sess
revisione
missione
trasporti
semplicemente
##onato
relativi
feri
pap
confronti
##ps
direttore
commerciale
utilizzare
energia
##ccid
giard
##.0
movimento
gh
religio
influ
ragazze
possibili
collaborazione
dovrebbero
ripro
cm
##tola
##archi
distribu
##obiettivo
psi
##scere
fabbrica
motore
dormi
tempera
tab
arrivare
sap
coloro
veloce
concorrenza
capp
fili
cook
esperienza
deno
bon
spero
forze
elabo
fiume
precedenti
##vina
##gico
chiamata
partner
##dire
stron
##usione
adottato
##catore
##die
fece
tari
venuto
##iale
velocità
chiede
spedizione
##);
svizz
avvia
zu
##renze
cielo
castello
60
han
paolo
##ranza
particolarmente
esegui
2000
tess
##sità
ke
##rutta
trasforma
passi
utenti
origine
##vel
accordi
##genze
rega
aria
dallo
rispetti
##trici
aperto
maschi
azienda
##impre
##acce
funzion
mg
##-19
##ng
tecnologia
soddisfa
responsabile
verrà
maes
##nan
##.000
##nica
gas
utilizzato
slo
mono
strategia
candi
emer
crisi
priori
negozia
ricordi
pieno
gol
##und
adatta
esattamente
capitolo
geor
aiutare
esser
sacco
##ionali
avanza
vale
appartamenti
##fr
piscina
contratto
it
vesco
forme
sosteni
forn
tenere
##terra
2015
aziende
##/200
##dotta
2016
terzi
##ght
vie
risol
##late
prossimo
parigi
manu
venti
perfetta
inizi
stri
sinistra
caro
giardino
rafforza
parlando
successivo
presentato
fid
sig
colori
##75
##stici
commissa
dovresti
patri
dro
##monia
vacanza
##pren
là
rende
manifesta
##tz
istituzioni
##dite
##meri
spiaggia
divenne
##rus
vittoria
##cana
##tuni
vino
prendi
ripre
condu
##desi
90
contesto
ritor
##ex
merda
##minio
##alto
desidera
carlo
adu
pio
riduzione
parche
##arma
arriva
simbo
linee
vanno
##om
militare
sento
famili
##giu
iii
nave
perfetto
vostri
##logico
torre
inso
fornire
morire
##gnia
##azi
##scio
##iona
##università
mercati
ebbe
dipartimento
##gante
##zzati
##grafica
fore
##struttura
sale
ara
investimenti
aggiunto
##ttive
chiave
##ufficio
##inta
##orno
2010
documento
comunitaria
dedi
conquis
sopp
serio
tanti
supporto
35
##mor
contiene
innova
oro
##sì
sopravvi
bur
voleva
amo
arriv
occorre
economici
progressi
conso
mera
##energia
##sen
gratis
armi
##45
##ppio
##'!
adegua
ripa
##ham
ottimo
chiedere
britan
compagnia
rea
rosso
unica
generali
##renti
viol
##isa
2012
regole
como
rendere
##entali
trovano
##):
ferrovia
##luzioni
hu
posse
batter
catto
raccomanda
elettr
##fre
##erò
sel
##tagon
##messa
genti
proposito
som
strani
2014
inti
messi
##pote
##ismi
maniera
##dor
ministro
carb
decisioni
##tional
reti
##ak
vogli
que
lasciare
calcio
mezzi
vigore
sé
sfrutta
lago
##essere
2005
##tudine
##rvi
##85
sposta
femmini
32
difesa
merci
scoperto
intende
##samente
stia
politico
fle
mette
solle
##39
potrei
##zionata
cibo
capitano
##epoca
prefer
##detto
rimane
congre
2011
perc
prese
nascon
convenzione
##ann
=
##veri
operazioni
##turismo
##6)
festi
##telo
distin
prevede
ricordo
atto
##mando
differenza
guada
ran
bassi
perman
commerciali
cliente
principi
terza
##gnare
##bbi
parli
perchè
pilo
realizzazione
##cole
espri
osta
destra
##miche
recensioni
notizie
##lico
tecniche
##ent
2009
ufficio
fratelli
affin
##riamo
sha
diso
riesco
questioni
wal
##ds
principe
##nico
dichiarazione
2013
2008
simili
##ccare
comprende
metti
##informazione
esporta
contea
##82
carne
tedesco
permesso
aree
flo
sapevo
##grafi
formato
mantenere
##endere
##mino
##esperi
cur
##rov
##tene
##89
componenti
cambio
ecu
azione
ambiente
fiori
)
chilo
ovvia
##raneo
cop
##ania
scambio
completa
sport
qualunque
discussione
vet
uccidere
##/0
interessi
##bbene
##14
##ward
##je
##asso
##minati
stasera
ultimo
provo
provve
ap
##ong
vogliamo
##estra
costru
ji
tan
soff
fil
aspetto
##golo
gar
urb
ispi
##iono
effetto
umano
mira
pezzi
modelli
##america
accompagna
morti
portata
##azienda
##zzano
cena
distrib
nega
energe
londra
##ggiato
nato
fantastico
meravi
occid
diverti
##accesso
teatro
nazioni
vogliono
##din
agi
##sizione
emo
musicale
paio
##grazione
distretto
aumento
archite
rispetta
rober
acque
oggetti
##yn
ki
##spedale
##tivamente
##landese
guard
##cali
giocare
canzone
utilizzati
­
metter
andando
##77
conforme
natale
saper
2006
test
##ttino
scoprire
buono
promozione
complesso
##nare
##forme
tera
risulta
metro
2004
noto
##tuniten
valle
pressione
##onare
autono
id
scegliere
grave
pietro
##mpia
circon
sviluppa
affrontare
eb
assolutamente
segue
originale
inda
firenze
##tus
campi
##bus
rosa
comando
##yo
##ise
conseguenza
##tane
clima
##mas
necessaria
statuniten
sicura
labo
iniziato
riforma
volume
##boli
##vazione
esplo
organizzazioni
fia
benefi
numerose
solito
volo
naturali
##acquis
##dino
##ciato
continuare
##istente
efficace
cru
emen
obiettivo
debb
porti
##unt
vinci
santi
protoco
doppia
concern
scomp
##sk
##8/
treni
##87
plu
modu
flu
facilmente
arma
prossima
cina
partita
scio
imb
##elles
giappon
##ther
##quil
diba
conferenza
ideale
vecchia
consumatori
diverso
colla
##86
reci
contributo
>
credere
considerato
dena
presa
##occupazione
pal
inizio
località
##intere
errore
##messi
commissario
pale
presidenza
edizione
decora
ridurre
##nità
finalmente
##intera
controllare
br
##"?
malattia
stesse
##album
fidu
schia
hen
##centi
umana
ponte
vinto
colazione
industriale
dogan
q
##turi
percen
##tutto
##cenza
danno
news
sovra
particolari
##wo
creato
é
##roni
fate
isra
##49
moto
promuovere
tenuto
##dersi
lontano
procedure
protagon
##1)
importanza
normale
studenti
esigenze
fonte
##tidia
##logica
##ficata
##esperienza
india
taglia
incontro
vennero
cra
estra
terro
considerando
papà
bocca
##.3
domen
riesce
giusta
scusi
4,
##ggiu
##ttuto
##economia
effettu
##25
fina
##4)
##allegato
rie
##attuazione
##toriale
##ensa
condizione
avesse
previsto
##stato
perciò
##anora
mangiare
minaccia
figura
definizione
anzi
inco
venga
potenzia
quotidia
arra
prof
chiunque
anton
##utili
forti
os
seguire
finanziario
contatti
tecnologie
ovviamente
modificato
##ling
motivi
##bita
percorso
det
##cante
legisla
dimensione
team
##13
espre
lie
##ministrazione
##os
ricon
strano
occup
dele
immediatamente
antici
bisogna
voli
##deri
dura
considerazione
ritar
dev
distribuzione
migliaia
consente
##ttito
essendo
gratuita
affinché
soggetti
leggere
desider
xvi
##cur
specifiche
consa
alterna
poteva
produttori
dina
carico
bus
##.200
indipendente
##asp
##ellente
prestazioni
funzioni
sinda
semi
francesco
gall
necessarie
cambiare
villaggio
lingue
sorpre
panora
prospetti
##bia
##bbio
situata
denaro
capelli
date
##esercito
luoghi
riunione
guardia
##gri
vice
micha
preoccup
torneo
##zzate
##fficienza
confi
installa
america
voluto
##ill
partenza
roba
##teo
insegn
raccolta
esse
record
##-3
##istere
condan
##vola
od
##cos
##immag
##:00
arrivo
terreno
parcheggio
diretta
eu
##mpe
alcuna
##erto
ripren
conver
tel
addi
faro
##mera
##ney
immagina
##nella
ottenuto
##canze
fondamentale
##stare
labora
globale
frank
traffi
consegna
##sero
dispone
potenza
ugu
realizzato
retro
fiducia
##mmy
culo
rapporti
negozio
requis
traccia
##word
##eld
##cs
##vita
##42
edifici
reso
conosciuto
premi
bran
canti
##gin
tradizione
attimo
##nis
##tività
##san
utile
volete
##giorno
##zionato
andar
iniziative
iv
##46
composto
dottor
farti
supple
2018
##ller
scelto
pietra
##ester
band
disci
##cate
memoria
conoscere
mattina
##ud
##17
mac
governa
funzionamento
tener
##orig
##cone
eur
discip
##ado
##otti
divertente
2017
doppio
dà
ringrazia
passaggio
rispar
##bin
##rendo
metodi
##appro
altra
coppia
organ
##rli
mobili
provato
##stero
##onico
alex
##rea
##eme
##vendo
##alità
as
finanziamento
scala
divisione
##/201
concre
sufficiente
compito
rischi
assistenza
ere
##tù
moni
##spita
rifer
costante
libri
##"),
tosc
augu
##rali
ritiene
##xelles
splen
doveva
dolce
##pu
tasso
annuncia
specifica
ammi
##date
svizzera
tutela
david
post
luci
inna
fossero
##cura
sullo
appun
respi
trans
televisi
ria
falli
festival
by
profilo
##contro
80
500
nasco
provenienti
##verso
illustra
ze
benven
##gro
##come
mura
##del
##estre
coppa
rilascia
##ore
2001
##dibile
peter
dimin
##dotti
soluzioni
propone
bul
##wer
indirizzo
##sciu
tranquil
impegna
rispondere
##impresa
quarto
##99
45
##gini
##ek
conosco
dovrà
michael
you
##lly
##37
menti
macchine
36
legislazione
biglietti
##inse
##dico
##erato
mater
unite
volontà
sostanze
proi
agente
##dimenti
confli
completo
quartiere
resid
dolore
ingre
cookie
lunghezza
##88
marina
phi
esatto
##micidio
este
universi
medie
my
analisi
mediter
speri
sebbene
minimo
consumo
vacanze
popolare
##ffe
pran
##fra
protocollo
uccider
assicura
##my
##urgo
femminile
fian
piane
obbliga
##ston
rientra
ridu
##attuale
sapete
70
##ep
bravo
wor
##ssime
##tes
fondamentali
alloggio
lettere
aeroporto
raggiunto
culturale
incora
credito
richieste
contrario
finita
argo
##scente
bruxelles
##ens
coraggio
##fort
numeri
cento
190
vantaggio
austria
##associa
cattura
##atten
##gimento
satelli
jam
notizia
kg
criteri
##volu
versa
##venire
##pevole
edu
##ot
orientale
compagni
bordo
intelli
infra
pagare
meccan
leader
principalmente
2002
##sile
napoli
sam
##utato
##ggiamento
##cchie
fro
appli
finanziaria
percentuale
stanzia
##ssore
gal
##anda
##arri
tabella
##anni
possano
impianti
modifiche
guardare
sarebbero
sicuramente
segno
cercato
inser
##ranea
lava
##risti
appa
##bio
restitu
provare
grecia
##18
certa
2003
enti
spon
traspare
carte
max
chieder
tecnico
gamma
rilev
austra
##glianza
visitatori
ph
priva
##detta
aggiungere
scorso
miglioramento
eletto
00
realizzare
acciaio
##las
regina
##tena
potrà
nar
##zzino
alloggi
licen
##36
farmi
##ppure
colleghi
presentare
muni
ovvero
garanzia
contribu
insu
##bria
##diti
commercia
attuale
latte
assieme
caffè
isole
dose
##istica
##ves
finanziari
afferma
diplo
scuole
000
barc
politici
inver
##”.
compro
perdita
pubblicazione
centi
prigione
splendi
avrà
##rle
spos
centri
##scono
presentazione
ufficiali
rimanere
rock
##ant
##mentato
##ach
giuse
5,
##unta
finché
##ggiata
aprire
laure
traffico
##ssare
idro
chiese
##autorità
der
##detti
mori
1999
potresti
speranza
##gallo
dimmi
##lterra
dialogo
straordina
liqui
nuovamente
##way
cinema
bir
ripo
password
maggioranza
potremmo
##vello
alti
viva
bibbia
rifu
goo
temperatura
clo
custo
arrivato
##ervato
##-201
##gendo
pezzo
##anima
##cher
chilometri
##clu
giappone
vini
##79
##inten
##associazione
mancanza
fonti
##sche
##rdo
biblio
distur
##pore
vittime
area
risolvere
##ctor
partecipare
##lanti
idee
##immagine
##ssato
##importanza
""
corsi
dicono
controlli
##istro
##ficati
naturalmente
campione
cavolo
divis
##tichetta
##jo
agriturismo
signorina
entrambe
##nel
fur
tieni
##istruzione
feno
doccia
ue
vostre
turno
##43
##enziali
##berg
##telle
operatori
siti
giuseppe
peccato
tavolo
scheda
##entemente
marco
##scritto
registrati
##nie
recupera
##ys
##simo
zucch
tornato
utilizzando
##76
offerta
300
##2)
##erebbe
pranzo
aperta
##luo
cristiani
minuto
registrazione
costituisce
scoper
lou
silen
viaggia
esistono
grosso
##nanzi
feste
sarei
nomi
##»,
tribunale
pistola
ciascuno
dibattito
chiedo
bere
##erazione
‘
aumentare
sino
email
sil
cee
ristruttura
danni
agenti
categorie
##4/
##colare
russia
riuni
barca
certamente
trattati
contenuti
her
##pla
iniziare
pad
segreto
##ssan
rad
ministero
discussioni
##lievo
offrire
connessione
divi
singoli
scompar
##pt
seleziona
bianca
##48
willi
necessari
enor
estremamente
##ces
gravi
##analisi
chiaramente
tori
##fare
##aff
##erare
elezioni
fondazione
occidentale
asia
requisiti
corsa
##ux
##lava
##cili
aumenta
attrib
ferma
##af
prenotazione
##utilizzo
chiuso
indis
ciclo
##matico
##metro
5.
meraviglio
gratuito
resistenza
squadre
sostenere
##abbiamo
2019
##nata
costruito
miliardi
##scì
decide
gon
sinte
cancella
##cerdo
conformemente
putta
##eth
##vali
cali
##end
lasci
prenota
##aeroporto
##5)
39
##intero
priorità
interessante
rappresentanti
limite
addo
matt
##teca
economiche
scambi
filoso
qualora
collezione
colpo
merid
scapp
fidanza
ghia
james
##offer
suggeri
amma
##hanno
farà
unione
##eff
##ks
cane
##lizzato
facili
sacerdo
elenco
ken
##mber
##tile
dona
artisti
influenza
corrente
##ball
produttore
##viti
##duti
preventi
dedicato
##edificio
ordini
aggiungi
industriali
vetro
potra
consigli
manca
##volmente
##bar
tom
signori
sacri
##elenco
##47
richia
finire
paul
##denze
sorve
umi
avessi
##tensione
##gnano
statunitense
preghi
andro
veicoli
ner
pacche
##ecc
motori
ultime
##terio
##zioso
arte
’
art
riscal
interventi
basato
anzia
titoli
01
regionali
preparazione
limiti
tho
##pero
##3/
##schi
##isi
debu
geno
ogn
avrebbero
adulti
marchio
##book
fronti
inizialmente
venuta
spiace
vada
dica
##pria
##esia
maestro
##22
salvare
vescovo
##gar
##istitu
##dge
scrivere
circolazione
visione
avevi
comand
##var
andate
accessori
proteggere
rifiuti
opportunità
abbiano
##-5
assum
ultima
##").
ambientale
orto
responsabili
air
interni
bassa
congi
tante
##agenzia
biglietto
##'8
##ttan
notevole
##dows
conseguenze
faceva
conclusione
riconoscimento
##seguito
##scin
##cazioni
ricevere
prepara
bambina
ampia
smetti
##gate
ricord
impedi
city
dormire
george
palla
superiori
dimenticato
##nello
william
cosidd
muta
##1/
sinc
vege
giapponese
mille
comunitarie
##enna
riun
crimina
##pressione
##damenti
piatta
diventato
google
destinati
rivesti
lancia
restare
desideri
riguardanti
associazione
oper
cambiamenti
##200
##offerta
##par
selezione
nominato
incen
portogallo
##bal
##inizia
faremo
resti
##uali
pas
##nici
##--------
esame
cambiamento
##canti
##ington
ampio
##sili
esperti
rapidamente
conformità
spagnolo
sarai
anna
decen
piante
farò
##trò
collegamento
pena
##”,
chiamo
##gento
costruire
diversa
specifico
les
voto
##forte
giocatori
fisica
##pensa
lettura
##.)
richiede
##tal
##mentale
sforzi
vuol
aposto
acquistare
intenzione
##intro
combattere
annunci
tizio
cassa
aspettare
$
world
trasfer
##gliata
franco
accade
competenze
##equi
##38
##ensi
##ersi
##gs
##nio
##estate
pin
##impo
##minate
aereo
##comp
toscana
75
ces
pianta
trasferimento
pratiche
##inato
sant
##landia
##65
top
##zionare
##ira
sbagliato
coni
succedendo
relatore
prevista
partite
cala
italiani
quota
previste
##sch
##agrico
insegna
vigi
##ccati
dispositivo
transi
##inamento
ille
##6/
ospita
frequenta
##2/
porte
##ssino
partecipanti
##bel
chiamare
petro
ari
canale
din
esistenti
domenica
evidente
firma
sogno
conven
bellezza
seria
condizionata
##eratore
angel
opin
interessati
##uli
accanto
meccani
sviluppare
show
testimoni
apprezza
##terali
paziente
##7/
oppo
rimo
stabilisce
##isca
##sb
decidere
impossibile
##ormente
allu
nascita
adottare
canada
pasto
gene
fara
arrabbia
##fano
passegg
..
ricordare
windows
##.,
tedesca
morì
conferma
strade
##lon
vittima
composizione
##erano
##ortare
6,
mc
dovete
conclusioni
campe
##bole
dipende
##stanti
cinese
##gran
dirig
polizio
##appar
presentata
giudice
##78
ricerche
fattori
spalle
aci
##ata
spettacolo
##sfera
cese
buone
monu
pubblicità
dubbio
monito
luna
poteri
poster
##impa
concernente
intervento
barba
spiega
##cine
metropoli
##interesse
applicazioni
banche
joe
privata
##mò
montagna
coordinamento
vicin
##ellona
attor
altrimenti
laboratorio
allon
##occasione
##grafico
varietà
gua
deten
##inti
jean
pronta
parro
attivo
pronti
territori
disciplina
autore
normativa
emendamenti
croce
##assemb
##.2.
fres
personaggio
impegno
scene
permanente
stella
annuale
mich
##dal
voci
##camente
##bor
##usi
avendo
##ttempo
antonio
##iano
##72
extra
##arco
federale
percor
##geni
destinazione
magni
maritti
brano
##chiamo
asciu
boll
cioe
punta
tocca
eravamo
dichiarato
francesi
tradizionale
##mobili
opportuno
romano
inno
##vile
trasmissione
minore
ovest
##ffo
registrato
tratto
restri
immagino
testimon
belgio
voti
lavorato
##agricoltura
pavi
cass
copri
rivista
strutturali
suddi
assicurare
##onata
coltiva
celeb
1997
##esercizio
proposto
##chino
##autore
frattempo
1998
rimasto
##attenzione
tiro
##-200
lum
##9/
effettuare
privati
silenzio
##95
##gegn
accogli
ceca
##abb
tun
cd
personaggi
consegui
##mbra
compati
##ttato
batte
circ
##glish
secondi
##logici
barcellona
attorno
eventuali
park
##tentri
##esame
recenti
##glione
scato
##44
mark
##cialmente
##notte
saint
ottima
##cho
legale
##ade
istru
##cial
mana
bici
##usura
##ander
pubbliche
testimonian
concetto
##viamo
##.12.
turistica
indicato
protagonista
##fficienti
gentile
tratti
avresti
ministri
igno
cambiato
dista
turismo
paesa
approfon
collegamenti
pilota
importazioni
vicini
ragioni
ricorso
##han
imposta
perse
incontri
##ford
##lini
ster
gare
##insta
alza
giù
##nes
##ttivi
copia
dicia
danne
rece
fammi
vorre
tenuta
agricola
aggiu
##teranno
compli
6.
spar
##intervento
commenti
isola
vantaggi
stimo
titolare
##sio
##strutture
##dore
black
essenziale
aman
pianeta
##33
vincere
##.1.
modificare
##ji
mike
alimentare
##librio
##sato
permettere
7,
##rietà
##ring
gard
allena
consiste
##erlo
soffer
costituito
nole
benessere
dri
down
comunitari
accettare
##guardo
191
organizzazione
lati
vendi
##ianto
pc
##dazione
##iniziativa
settentri
partecipato
##mann
mary
meridionale
##sion
verita
offri
##ju
specifici
cresci
##onale
giudizio
##gori
evento
braccia
edificio
ray
selva
riuscito
alimentari
ritardo
veniva
##alta
esperienze
##zionalità
resp
servono
##estensione
house
generalmente
##lor
iniziale
##gitti
tentativo
##gici
##quilla
##yer
elemento
universa
sugger
scegli
meda
##ction
tecnici
potente
los
tira
##pol
debole
fame
##cie
pru
##lizzata
olio
dirmi
out
##assemblea
insomma
dirlo
costituzione
pesce
decre
temi
nomina
paci
##41
fianco
teoria
uscita
net
pagine
spaventa
madri
pensando
card
semina
rinno
successiva
iniziò
pensiero
taluni
##dali
##gy
##31
##8)
##tun
##messe
diam
150
significato
##otto
dando
potenziale
finche
sequ
attrezza
sessione
innamo
tradu
##.10
socio
##opp
compreso
militari
puttana
sappia
farsi
sostenibile
##ttare
saputo
##get
fermo
detec
oddio
prosegui
trovere
famoso
esterno
cavallo
medici
cere
giocatore
soldati
comportamento
braccio
vicina
novità
materie
cosci
##stino
caldo
attacco
sorpresa
##sma
##esistenza
negoziati
tiene
critica
dover
ripet
##grafie
1996
poche
##adozione
##vest
##cus
richiesto
##fero
##donna
stabilire
bis
cinemato
borsa
truppe
comun
esclusivamente
##derci
riba
##ssibilità
vul
meteo
##imento
##ku
english
comandante
episodi
sovie
##-6
catte
fretta
allar
##lanza
dotato
farai
##84
preval
##ongono
##denzia
processi
soggetto
189
bron
secoli
dammi
lussemb
##introduzione
##any
desiderio
##rendi
##cela
##ville
##cilia
##tualmente
israele
##ettato
9,
##state
debba
##teriore
sena
##ensione
##istan
##logna
sensa
benissimo
##utati
quantita
##ingresso
##raneamente
##geno
adi
##verà
segnale
sabato
capace
neu
##7)
dispositivi
##eta
visitare
vento
guardi
war
fondata
avvocato
violenza
rimb
free
prigioni
##ht
avrai
omo
esti
organismi
##endario
finestra
##ite
diffusione
foresta
leon
malattie
privacy
##troppo
immer
##pertura
ungh
pensione
dedicata
##vanta
trovi
tempio
rigi
serata
corto
specialmente
cy
##........
##strono
pelli
solida
differenti
ml
trasformazione
irri
posizioni
zucchero
sanno
approccio
buoni
##ago
##lun
vite
culturali
##tomi
consoli
viaggi
asc
realta
##ness
##toni
cattolica
attiva
##melo
##ssegna
##xy
##gene
detective
letti
positivo
ipo
##bil
##done
impegni
rossa
shi
cle
contribuire
##istituto
torino
##0.000
terapia
##-199
##gitto
##origine
pero
whi
espresso
henry
##cque
##unti
ron
vener
occupazione
##iness
disti
cattedra
consta
##mbia
allegato
smettila
utilizzata
coer
animale
incidente
##cini
##dute
risposte
propor
istruzione
bei
defin
##wood
finanziarie
riparti
##sare
33
istituisce
##mosfera
pressi
definire
tracce
##-9
mobile
rim
antico
clicca
medicinali
##sciamo
##eu
##cipro
successivi
pronuncia
esemp
check
immobiliare
verranno
rib
hel
stranieri
elen
##tani
navigazione
##mila
##spa
##tuo
direi
terrazza
regalo
##sin
##marca
##fast
186
inva
##cker
immagine
consentire
personalizza
##bro
minori
vince
##rs
##ssibili
governi
canzoni
protegg
greco
robert
##ship
minera
roy
##uscita
competenza
sedi
berlino
doganale
xx
##24
sea
chiara
##metter
conge
familiare
reca
##archite
##riamente
continui
##dò
desidero
saperlo
disoccupazione
cera
isa
romanzo
##dam
tranquilla
svezia
##fin
avviene
zio
##83
cervello
avver
potrai
##appartamento
denuncia
composta
lumino
##pole
##torni
sente
ciascuna
rispettivamente
fuggi
giuridica
##cchiata
possie
punte
patrimonio
##gando
discorso
fornisce
americano
rub
infor
##uzione
amica
gian
##loni
##uts
tariffa
sostan
##elet
##rito
rivela
nasce
droga
imparare
##fran
evidenzia
vecchi
##arrivo
lomb
nata
svolto
audio
##orrere
armoni
85
##26
chiusura
ville
usando
solamente
statistiche
##ziali
irre
agricoli
##infer
neo
idio
##orsi
rinuncia
applicare
recipro
##nali
scritta
link
##ttle
appari
capisci
elevato
moderna
motiva
buongiorno
ristoranti
cantante
copertura
esterni
antica
tene
familiari
ita
##pina
intito
##zer
minima
veicolo
rafforzare
consiglia
conflitto
persino
##innova
##ges
arrivando
episodio
server
colpito
nutri
scienza
risparmia
assegna
direttive
##istituzione
preghiera
emissioni
ob
##unzione
gusto
affida
uscito
organizzato
preferiti
errori
disegno
ovunque
eva
generazione
lavorando
##evoluzione
coi
##rt
freddo
compresi
galleria
riuscire
ubi
##busti
continuo
gul
##augu
imm
pomeri
deriva
##llazione
##grafiche
purtroppo
lusso
dimostrato
perce
frutta
appuntamento
antichi
attuali
turchia
sapeva
rovina
cogno
ossia
gestire
irlanda
##21
altezza
perfettamente
stabilito
##aspetto
classificazione
richard
1994
##esecuzione
##yle
##demia
prescri
##work
tessuto
segretario
potranno
scarpe
nick
vicen
denti
##incontro
inqu
compensa
##zzon
8,
obblighi
##acquisto
##eva
##grado
tennis
utilizzo
ful
##arre
wow
africa
##rur
sfida
sviluppato
elettrica
lampa
sentenza
recupero
piaci
##angelo
automatica
##acca
seno
infrastrutture
amministrazione
##biti
determinare
gioia
tonnella
1995
nera
##impatto
##king
botti
##gina
##ssuto
ognuno
stabilità
##apertura
svolta
spirituale
##opport
borgo
age
recante
considerata
fasc
inde
odio
martin
spesa
champ
##tella
svolgere
ponti
mus
accedere
brow
università
procura
400
west
##cita
luca
decise
polvere
##55
##azia
(200
appre
visite
##rino
luigi
destinato
##iva
approvato
##ban
##sy
##arto
riscaldamento
##inci
°
eliminare
appropria
vestiti
togli
diocesi
##quo
licenzia
assor
rose
aggre
relativamente
ambientali
##-4
collabora
religione
racconta
deposito
praticamente
##gratu
storie
superare
##ón
incluso
##71
prendo
medesi
##81
configu
credevo
##vor
dodici
facente
casino
##."
conservazione
individ
ty
schermo
seduta
professore
bandi
rimase
##integrazione
semplici
situazioni
##impe
stanziamenti
rit
##23
settentrionale
provi
primavera
##impero
prendendo
escur
epi
tela
##sho
capitali
lussemburgo
##ye
presentano
##esimo
segni
abita
biblioteca
##29
discri
##burgo
sma
xii
popolari
pista
##burg
brasile
##versario
ono
##gola
dettaglio
##mendo
##atto
digitale
russo
frequenza
momenti
pmi
##iormente
stadio
stupido
costu
dipendenti
periodi
stronza
##enne
xvii
fabbricazione
bed
sacra
muro
##istico
##ansione
interamente
ripe
matrimon
calda
enorme
##ence
svolge
valutare
simbolo
confine
confronto
soddisfare
##pper
55
vuoto
##dt
mediterraneo
consen
opzioni
anne
vivi
ospedale
sfo
ritra
cellulare
fornito
##gos
ricco
affatto
larga
colonna
norve
tossi
tavola
residenti
quegli
scoperta
anticipo
proprietario
##uiti
romani
sur
beneficia
##...]
##dizioni
##effetto
negozi
##erico
von
comprare
##73
campeggio
previsti
suono
##ond
esecuzione
brava
##vamento
passeggeri
scia
##logio
##0)
sembrava
somma
##core
troviamo
tenendo
ry
fila
tranquillo
ulteriormente
polonia
triste
tradizionali
charles
moderno
carro
college
cavo
incor
compresa
##rittura
##cheo
procedere
rappresentano
##erv
potrete
duro
##giona
play
##identi
preventivo
##logiche
1992
tasse
##arli
sorpren
pier
##scendo
piacerebbe
7.
##ttica
##let
legitti
business
##talmente
break
ip
sostanza
##gel
azz
apertura
##andosi
##lante
##importazione
addirittura
##load
sembrano
interessato
combatti
effettivamente
open
##como
##assistenza
licenza
osservazioni
65
danimarca
residenza
equipa
romana
riceve
taglio
##ghese
ciascun
nazione
##occhio
##pito
vicinanze
hard
prose
scientifica
consultazione
aerop
recentemente
##vra
##zzetta
fascia
calendario
occa
dirti
analizza
##destra
scola
##red
versioni
##pli
##zialmente
avvicina
volto
##adesione
lasc
produrre
mondiali
##ospedale
##viste
##presi
contratti
concerto
spazi
regolare
acu
1993
catena
prestito
##utente
esterna
dominio
diretti
ascol
apparti
carni
##02
giocato
##ricato
deriv
browser
apre
sveglia
composi
reazione
nemico
fio
##giudi
virus
dintorni
giove
##ah
street
('
##letter
perd
termina
ringrazio
dovranno
trasporta
##lui
ricche
##ici
privile
##ceo
##gone
tessi
inn
jan
crista
verificare
quad
messico
cr
messaggi
##mattina
##34
##lemme
uguale
##derti
king
definito
##erata
applicabile
onorevoli
finora
monaco
democrazia
##innovazione
##ldo
##luogo
albergo
terribile
manuten
##antica
raffi
##69
##inda
pomeriggio
##giche
sorveglianza
riven
##marsi
avevamo
ufficialmente
altresì
adegu
farci
pubblicata
##obbli
(199
indispensa
pubblicazioni
##goglio
##zionamento
##inqu
preoccuparti
##stein
##ppie
coesione
##tia
incredibile
baga
schifo
rinnova
##/10
sun
##rl
telecom
##agente
ruba
vel
cambi
##assa
saremo
##alti
attuazione
gla
barche
cappella
nucleare
##amministrazione
potesse
inaugu
##zzina
competente
pane
invita
wash
televisione
raggiunge
iniziativa
include
cavali
##indirizzo
converti
vii
##onda
istruzioni
inclusi
more
disabili
americani
48
##ensore
ceri
##enz
gira
bologna
pacchetto
piatto
##ortazione
##umani
arrivati
totali
cause
##impie
rurale
intensi
##vente
competenti
ottiene
prenotazioni
##'11
chirur
vasta
́
cerchi
condotta
costruita
92
tagli
fr
tedeschi
latino
fatte
##contra
congratu
bellissima
##mene
lune
commento
contributi
1990
marte
spara
lisb
##entrata
dolo
basata
entrata
riva
assunto
##mpagne
sim
grazia
##trale
sfon
##fornia
manda
appartiene
pola
compiti
costituiscono
##ara
##than
batti
##letto
molta
mole
pover
newsletter
passione
##05
circostanze
candidati
vivono
sosti
ottimi
fasi
stamp
intelligente
tex
giallo
##ttamento
australia
francis
trasfor
raffigu
piattaforma
classico
aerei
stor
moderni
##cciono
ampli
entrate
risal
considerare
##imperatore
10,
##ranei
studente
##edizione
socc
accre
imperia
sessuale
storica
mate
alberi
maschile
determinato
##bby
arro
sorta
##aumento
champion
##terale
caduta
elettro
gala
jane
##cel
##ml
charlie
curio
possesso
eccellente
##dotte
pagamenti
realizzata
##visa
##dette
##%.
##atta
suite
introdu
##importo
comfort
uffici
veter
##torie
istan
sorge
tassi
##vd
salvo
dom
onorevole
vers
notare
bas
esterne
associazioni
metalli
##goro
differenze
femmine
##disce
bil
pr
colp
##minante
improv
facoltà
##ggiate
mag
stretto
modulo
concentrazione
omicidio
parten
manutenzione
##ski
##peri
riconosciuto
realizzati
entrato
##ple
indiri
##gas
ala
verti
manuale
frutto
concessione
ebrei
ridi
washington
jen
##anna
##28
bianchi
disputa
meccanismo
spre
impatto
elettronica
deposi
tonnellate
95
ambito
maglia
medicinale
quante
ulteriore
37
ingegn
##onimo
##monte
besti
inserito
imba
voler
##win
##lone
##stazione
##naia
nemici
##tanea
consenso
adatto
##rgli
marche
inuti
gold
sorri
league
##insieme
thomas
risponde
alp
##effica
incontrato
eccessi
##cene
onde
piatti
##onici
sostituito
aro
##oli
attesa
ballo
sforzo
evan
cristiana
liti
##estero
##bn
##fu
mel
intero
##mos
##scar
orientamenti
rappresentante
##iando
calo
dre
altretta
bob
##.00
corona
interessate
##gamento
##ugh
dramma
marti
she
tappe
amiche
automobili
##zando
puni
##66
ricca
compleanno
chitar
zero
##cht
chiusa
##ula
cellule
pienamente
prospettiva
adottate
inventa
acci
accettato
accel
iva
##guardia
##ab
##ingle
reddito
seri
attento
talune
movimenti
##potesi
sarde
scrive
##mbascia
moneta
accen
34
sconto
rossi
battuto
progettazione
nonna
scusami
indicazioni
occu
perfe
legati
combinazione
debito
radica
marcia
costri
iscriviti
vestito
sguardo
felici
tornata
1988
##diso
romania
coscienza
##africa
cost
regista
##sha
prevenzione
cada
canto
##ning
riunioni
tranne
qualcun
dono
diceva
##bie
campionati
##stia
patto
angeles
segreti
usata
combusti
185
ridotto
nervo
”,
[...]
capoluogo
##tions
assemb
operativo
razza
##sson
uccelli
##":
cattedrale
©
rimuo
diede
angolo
cani
storici
1985
fuga
ossi
##ttuta
1987
anziani
amministrativa
##chestra
chiedendo
centinaia
scatola
fenomeno
esercizio
bill
odia
quinto
##mazione
##100
ost
pazzo
coman
california
riuscì
##wan
live
professionali
getta
rivolta
1989
benvenuto
inviare
sconfitta
dichiara
bern
##camera
tette
pesante
##ssicu
rapida
vendite
averlo
magne
##zzò
statistica
saro
##gramma
piacciono
##cke
##oss
##gion
comunale
##gor
farmaco
concerne
##68
artigia
sicilia
attrezzature
seguendo
scaricare
brutto
offrono
registro
##gino
bari
38
##tru
1°
rifiuta
##chel
popoli
agire
provvedimenti
elegante
cittadino
costretto
riferisce
salvato
##ate
preparare
metropolitana
rilass
centrali
legato
inviato
scusate
conoscenze
rischia
matura
daniel
##culo
##27
calcolo
civili
italiane
pl
rapido
##lizzati
firmato
##evento
vendere
##informa
1986
favorevole
denominazione
download
social
##!"
##urato
##ast
fiscale
corretta
visti
raccogliere
render
##letta
orale
##%)
##'"
##utica
##alizzazione
salv
##?"
frazione
largo
alessan
core
pregiudi
grand
metal
ferra
##usalemme
##ressione
consapevole
trovata
ingresso
persegui
##tagna
tag
##bs
auspi
destino
fattore
louis
##impegno
jose
psicolo
sla
##ccata
addosso
esteri
banda
attua
competitività
conferi
mur
sparato
##impiego
suici
probabile
##ennale
##.5
sou
britannico
##sei
christi
compagnie
esempi
legger
appassion
##rocco
analo
birra
##erve
inclusa
modificata
ambienti
vincen
mali
##insegna
info
afri
ubria
taxi
spera
incro
##prima
interessanti
ove
recuperare
##tha
spin
archeo
conveni
americana
##opportunità
infi
avverti
lasciando
rina
bet
##asse
caratteristica
duca
ritiro
torno
lunghi
##occhiata
scienze
##stati
venerdì
====
parità
calma
preli
andati
abu
municip
mostrato
rai
jon
cora
##artista
gerusalemme
pertin
fondato
prezio
studiare
applicabili
esecu
dero
gay
discutere
##bla
##mante
##gliare
porre
international
lavorazione
mezza
possibilita
masch
smi
glielo
colonia
singola
##oce
##cchiere
setta
nacque
carino
volevi
sardegna
sindaco
catalogo
testimonianza
##cane
vengano
1991
scappare
saresti
diagno
parliamo
alte
back
piacevole
calore
inserire
cinqu
sintomi
noleggio
madonna
##ama
##ganti
jer
avvicin
divor
tetto
chiami
originari
bellissimo
distribuito
android
180
comprendere
rivoluzione
quarta
fisico
##obbligo
organizzare
jih
##vedere
gradu
imprendi
##now
crescente
elevata
adozione
chiamate
sarò
##ted
suda
##tusia
squ
breakfast
napole
sotti
matrimoniale
assumere
condotto
##ssina
aiutarti
caratterizzata
concluso
crimine
nascosto
deuts
ravvi
bulga
dottoressa
prestigio
##cipi
offerto
##ons
##pose
confronta
parete
comunicazioni
bomb
prestiti
merce
orizzon
trenta
giuro
conquista
imper
ascoltare
prenotare
forno
menu
##well
esserci
tendenza
testimone
dimostrare
convi
ghiaccio
mario
sposato
ballare
##lf
radia
##)*
innanzi
gazzetta
convo
profondo
ferroviaria
magia
sensazione
##nati
trovo
suona
##ald
jihlava
implica
qualifica
produce
##izione
##dier
funzionalità
sostiene
facebook
famosa
##lis
condividere
dovuta
talvolta
batteria
morale
##maggio
memori
##arvi
mr
intelle
ripri
stanze
comma
(3
metallo
personalità
##esterno
pagato
(2)
##dando
guai
vederti
cammino
##luenza
guardate
convinto
##nazione
##74
puls
(5
blog
appren
##inghi
##inca
promesso
##lavo
magazzino
asciuga
##amp
concorso
##umanità
preferito
ecci
industrie
plastica
quadra
deputati
resa
flotta
sfide
##glo
42
##cella
lisbona
##idi
esseri
filosofia
espa
portando
giorgio
precedenza
##meo
ostacoli
##iali
utilizzate
sesto
bretagna
trasparenza
attacchi
madrid
nipote
elettrico
cominciare
riesci
pericoloso
##cero
limitata
sapre
##onosci
venite
##mentali
insi
match
cami
universale
benefici
somministra
dovevo
limitato
gem
suolo
rubato
servire
pasti
]
##ttività
##golare
parrocchia
competizione
private
totalmente
##lesia
smar
ly
lezione
palle
posteriore
sentimenti
##field
giudizia
supplementari
fiera
manifestazione
marca
immobiliari
forum
olimpi
fornitura
##her
paradiso
costituita
musco
ol
umane
rio
bicicle
finali
estate
sconosci
riconoscere
##moto
stronzo
autobus
intendo
arrivata
diventando
circuito
sfu
maggiormente
bosco
bell
##64
guardando
possiede
##rì
1984
clau
considerati
acp
indicare
##ule
gloria
prospettive
##cera
verb
agen
essenziali
spari
discre
##mpere
interne
scrittura
chiudere
prossimi
120
award
lee
brucia
certificato
##kin
adottata
fallo
kar
decisamente
cima
ripresa
accer
mill
##nei
##vine
lord
croci
book
##curi
istituti
cominciato
eseguire
##eccellente
uova
campioni
divano
tatua
effettuato
rispettare
portale
##62
canali
cilin
venendo
finanziamenti
vergine
favorire
equival
eco
artifi
industria
raccomandazione
piede
##ttri
49
conversa
##gale
##zionario
##interpre
disposto
rilascio
chiamar
##emen
energetica
var
originali
scrisse
comm
##nta
indagini
esprimere
apposi
##out
kit
chiari
week
brev
legame
##angolo
doc
##rente
##fan
##vide
sensibili
amb
inghi
poveri
presen
gomma
medaglia
montagne
costre
linguaggio
lingu
gambe
##lte
2:
eccezione
ottenne
quotidiano
cavalli
riguardano
##sor
incontrare
testimonia
monitoraggio
rotta
televisiva
mobilità
rumore
master
(1)
venivano
##accu
gioi
diciamo
##ulo
##";
monti
latina
passando
green
conosciuta
morbi
see
avanzata
salo
baby
fuma
tariffe
##urt
virtù
fortemente
spada
usati
loren
##altezza
sva
vorrebbe
gradi
esce
balcone
avremo
##right
inghilterra
farebbe
high
##entri
aiutato
##gru
organizzata
eccell
scul
quadri
tipico
sembri
1:
profonda
congresso
scopre
sanità
golf
genova
assegnato
scientifico
will
dr
sfruttare
bara
8.
avviare
scott
##inario
alimenti
##indagine
guidare
##lyn
presentati
##autorizzazione
vasca
##sivo
##vania
pulizia
cicli
fotografia
termin
indipendenti
fedeli
senta
rilievo
nonno
andrea
blocco
##faccia
vissuto
coopera
##abi
barri
##atmosfera
##ssati
effettuati
sky
##iana
diventata
1983
##remo
jim
vengo
stretta
affermato
tenente
scomparsa
eppure
corretto
brani
lenta
anali
##installazione
##stor
perde
ammessi
programmazione
sospensione
sepo
ritengo
federazione
##glielo
trono
national
contare
##etichetta
basilica
aspettando
dou
confini
riuscita
up
dichiarazioni
sogni
oriente
##accademia
appartenente
use
05
under
carbone
compagno
flusso
##gliamento
procedimento
cie
##phone
##teremo
stagioni
##ken
prec
tony
company
cristiano
##hu
atle
censi
vati
letteratura
bandiera
foot
perfor
riprese
rese
panoramica
##zionati
certe
ebrai
corro
addetti
alessandro
##-11
congregazione
##mestre
##elabo
lancio
rimasta
professionisti
andrà
distruzione
##erra
conci
massi
solidarietà
malta
corpi
pub
##miamo
pop
##ulso
##zano
visualizzare
##udo
##03
lezioni
ravvicina
alluminio
##blo
hy
##day
##esportazione
##top
##tele
iscritto
staff
notato
avranno
annunciato
governatore
usi
autenti
butta
##opzione
naso
portò
prete
ante
progresso
##istenti
##rca
impianto
istituito
designa
fram
diploma
##ns
angeli
etichetta
kil
##arca
attivi
##fru
lau
scadenza
compra
account
generi
avremmo
franç
crescere
venduto
poliziotto
orari
##opin
##presidente
scelte
componente
##lita
solare
retti
##bis
##fini
##ttrice
##pping
vienna
tensione
risultano
##erei
gigante
panta
regolamenti
##mori
##ampia
99
annuncio
canta
##argento
scienzia
pensioni
individui
riguardante
precisione
aggiunta
##ongo
##sene
ela
imparato
decreto
vergo
##ttene
povertà
##liano
rilevante
acquista
documentazione
##port
reazioni
sembrare
coda
castel
##cherà
accompa
rimar
mostrare
argenti
##fri
##gazioni
anticipa
quaran
leggermente
##dar
residenziale
viaggiare
concesso
corrispondente
##voca
documenta
cittadina
ine
chri
raccomandazioni
andra
ricordato
mettendo
##acco
##iezione
dovrai
invitato
##án
collina
mosca
##kes
##oggi
importo
complessivo
permetter
agricole
supporta
##bert
44
##kh
vertice
##ticamente
farmaci
fusione
##omicidio
giuridico
ross
normalmente
serra
dovere
10.
3:
250
identifica
abbra
walter
enrico
difficili
##mie
dotata
##hat
##oniche
##onio
larghe
sentite
dna
scorsa
##razz
##attacco
ira
seg
inglesi
scen
##ish
importi
fiore
villaggi
olandese
partenaria
vertica
ordinato
prega
##male
scop
sviluppi
##lus
tassa
votazione
dvd
##miglia
##back
risposto
mostro
1980
##india
netto
origini
spiegare
addio
vacc
accedi
dite
##impianto
pensate
personalmente
##cona
chimica
##estici
mos
angelo
##rk
##ola
mission
integrazione
musicis
copie
cavi
paesaggio
statu
benché
casti
distrutto
--
##erla
definitiva
##medi
architettura
ottenuti
bevan
##latore
spagnola
potevo
realmente
dimenticare
farla
600
giornale
tessuti
orgoglio
progettato
velocemente
razz
pesci
transfer
frontiere
bomba
panorama
rappresentato
##iche
statuto
perdite
##iner
##dermi
##camere
impresa
##rerà
##ficano
frase
precedentemente
adesione
distruggere
chiavi
merita
diffuso
mercole
##nu
determinazione
pavimento
##59
hor
manager
allontana
cancro
##gionamento
juli
scrittore
##esca
wh
cardinale
##nice
provviso
idiota
autorizzazione
terrori
1.2
caratterizzato
(4
##ding
amministrative
annulla
##universo
##gliate
comprese
profondità
diametro
mossa
entusia
##niche
fornitori
##miti
selezionare
piet
crediti
sarah
esemplari
godere
infini
verdi
esaminare
deca
diffon
leo
parlo
##dove
confermato
##tunno
facciata
passati
##vieto
##lizia
##cea
##uita
##llante
zitto
antiche
sottolinea
economia
##investi
agricolo
coniu
̈
parl
##esposizione
##mond
doganali
##veranno
##sono
popolazioni
##irlanda
alfa
records
controllato
2000,
##viazione
acido
##tania
iper
incinta
altrettanto
incenti
classica
gino
guerri
stupida
divertimento
bolle
mica
marchi
malva
tai
legislazioni
temo
predi
1.3
stabile
riconosce
##wor
##onati
esportazioni
##pio
camion
##evo
colpevole
##bot
##67
galle
valenti
fermar
lasciate
indire
dolci
visibile
meccanismi
ricevi
trenitalia
##gerà
bagni
##chiesta
racconto
coinci
sexy
uman
passò
esercito
aero
supre
splendida
##nor
normali
milione
stazioni
##92
venuti
adole
determinati
comodo
adoro
ridotta
arrivano
##ramento
sabbia
rifugio
network
bun
finisce
box
##ans
cole
##atte
##ggiati
vinse
##istiche
riportato
##ciano
prestazione
intanto
finlandia
##udi
##argo
strana
contenente
simpa
recensione
edizioni
onda
risale
pil
sicuri
quote
##94
cattivo
fotografie
##efficacia
funzionare
chiedi
censimento
ecolo
inverti
##rdini
##scenti
funzionari
##tio
bugia
ditta
steve
bestia
##cap
separa
nav
dovesse
conforte
~
deutsch
##inferno
croazia
rendono
apparecchi
nt
definitivamente
trattamenti
stavi
amministrazioni
scopa
opinioni
monastero
##tiamo
violazione
riass
##due
rall
zione
1000
medica
avviso
genero
##base
##venza
regg
##ottobre
xix
pomp
vide
##austria
indossa
monete
##9)
approfi
##fbi
gr
clinica
monetaria
ricordati
football
significativo
attori
percio
sping
sufficienti
preparato
ku
avvis
##pie
smettere
scho
tende
appunto
##nelli
spiagge
##meni
fissato
impedire
taba
ricchi
penna
##-13
##ttente
collegio
##sterdam
lavan
potevano
liberi
disegni
entrò
##mita
##voce
mad
punteggio
grig
##dence
##61
##abbia
ultra
scorta
procla
dea
muore
derivanti
##elaborazione
cerimonia
##dori
correre
impiego
corrisponde
danza
##vet
##hr
ferito
addestra
leone
===
rifugia
automatico
compiere
incu
flash
cotone
offi
capri
proseguire
parlamentare
parziale
pareti
##ovest
trasmesso
43
twi
##ttoli
corse
syste
prolun
conteni
coinvolto
##gliano
##----------------
##editi
##df
sovietica
##inò
##istito
assur
##63
russa
soffi
adora
lasciami
salvezza
pho
##04
##mance
principessa
##vesco
gabri
##opinione
abili
agricoltura
bud
##rmente
##off
22:
plan
stavano
12,
royal
scappa
##verno
##sess
culto
caffe
inutile
##mt
ciocco
##strada
riposo
gravid
prevedere
aeroporti
indice
conduce
digni
presentate
danny
##missioni
##inghilterra
condividi
##apri
##tipo
frutti
giri
lady
pone
bion
epoca
work
aperti
efficiente
##olio
affitto
mattino
tech
bol
##critto
destinate
colui
statale
reda
ader
conversione
marino
##terebbe
##metraggio
comprato
sintesi
##sey
jimmy
usate
dipinto
<
energetico
##zionalmente
vincitore
estensione
chris
intendi
evoluzione
educa
9.
vedre
university
rinfor
strategie
richiedere
contemporanea
##.10.
##ben
permettono
ammon
regolarmente
riforme
isbn
correttamente
##zu
interven
##mmer
##illu
##ltà
favori
sloven
sanitaria
fabbri
foglie
stamattina
esposi
preca
wifi
rifor
cereali
chiamati
##dese
##antico
osse
sottolineato
place
vescovi
contemp
argomenti
gode
blue
pausa
dun
vattene
trovava
giardini
aspettate
##osserva
##viera
##ciata
hall
affascin
##stu
11.
##lievi
big
##oh
prati
##cfr
##alber
assai
equilibrio
fermi
gamba
##gnò
neve
imposte
simon
uh
scambia
pittore
occupato
costrin
notifica
meraviglioso
concludere
##stando
##liamento
ia
mul
insedia
##uch
spen
notti
##%,
norman
deco
mauri
portano
brevi
##ré
aggiornamento
rivolu
figure
escursioni
integrato
investimento
polli
##landesi
sacro
##ecce
individuale
incorpo
accumu
cup
##aere
effettuate
esor
lunedì
##ess
parlarne
##ult
successive
inferiori
##ett
ruote
##coni
##entamento
cl
gardena
##unato
valido
fattura
dotate
musicali
transa
indispensabile
neppure
prodotta
##.12
sottolineare
stabilimento
effettuata
##influenza
assicurazione
ricostrui
riempi
osservare
101
azzur
1992,
calco
fermare
previsioni
amsterdam
occhio
presenze
matte
sop
promessa
##ccando
##gibile
relax
digitali
##gal
##ray
##cky
fermata
respira
conferenze
impron
##tran
pulsante
nucleo
elevati
cann
esistente
acquistato
regimi
fantastica
##star
nottu
wander
grafico
##deria
corrispondenza
##cito
immi
notevolmente
avveni
cad
descritto
psico
dy
love
one
leggenda
acquisto
ricomp
contrasto
estende
considere
norvegia
strin
dazi
##deranno
##tinera
sostituzione
disce
reper
argomento
##xt
interpretato
##acciaio
schiavi
petrolio
ecclesia
sedia
vicenda
automaticamente
faranno
concerti
##ficando
cadere
capisce
arci
##cqu
wol
diro
##gnando
abbandonato
riserve
##silo
risco
giacomo
pani
preoccupazione
muove
cresciuto
##stata
siate
anteriore
veloci
##arle
solitamente
aller
scomm
##press
trattare
chiudi
cottura
religiosa
modera
##terò
infe
abbi
sacerdote
introdotto
miss
gine
consentono
##cciato
##-1.
41
##soft
(')
lorenzo
notevoli
nicola
mt
discen
mentito
ingredi
##stone
##lizzate
##metta
##til
harry
chio
##mero
rigoro
##ery
comprensione
ascoltami
associati
rilasciato
statua
saltare
sepp
##asia
proven
classificati
phili
distingu
ragg
parametri
##liche
##espressione
##omoni
##affi
contattare
##gersi
##arch
##della
legali
individuare
brutta
salire
rici
##tona
precisa
vangelo
##cago
##verna
##bon
occasioni
sk
##anne
greca
parall
##aci
limita
pittura
bottiglia
mantenimento
crono
espressa
ospite
raggio
raccoglie
##ders
regia
olimpia
mercoledì
##emi
formati
determinate
cognome
filippo
##esplo
appartenenti
passata
##adegua
arrestato
incis
frigori
invito
gravidanza
800
bronzo
innovazione
gratui
proietti
definita
##architettura
ritmo
botte
##celle
##ii
1981
giuris
laurea
penet
assoluto
maschio
province
colonnello
sconfitto
riscontra
puntata
definitivo
inta
sostenuto
##ala
flori
##tuario
##epi
scultura
poker
##utazione
sussi
##emendamento
performance
celebre
smith
##box
##pendenza
riprodu
##vir
esposizione
dottri
188
domini
mq
combattimento
facc
##metto
tubo
distrugg
peggiore
superato
##91
aran
epa
##tho
fasci
stili
foglio
finestre
##erete
vittorio
##pres
comunicare
ref
rotto
intitolato
causato
##etna
##500
##importante
cerco
maledizione
##kov
cimi
mara
imma
artista
vampi
##dioso
precipi
##52
zia
##terai
cercano
esplici
positiva
legate
orri
##unicazioni
##nera
assume
##dei
rino
##namento
bagagli
##chen
foreste
consigliere
eccezionale
white
congiun
benedetto
##efficienza
unicamente
##ottima
neri
coprire
##98
road
farle
troverete
attraversa
agricol
qualita
compresse
formare
##dova
aggiunge
##ming
##ance
##ments
tasti
##lizzare
preciso
leggera
soccorso
dece
##mea
##assicu
istituto
giovedì
##].
transf
sir
ss
agevo
españ
democratico
##enzialmente
tradizioni
ball
##tologia
##rontali
michele
contenenti
assoluta
tratten
malgrado
center
sonno
stefano
affian
agenzie
rendendo
poste
rintra
♪
##endosi
alberto
trap
mil
cattiva
len
misterio
garantisce
gin
studiato
##servi
hit
fiscali
##vini
avvenuta
tè
##pes
##dura
##avevo
abilità
eman
##ttico
emma
ricostruzione
andò
trovati
futura
vicepresidente
singolare
assass
spet
anale
##parti
##tenze
adeguato
strettamente
scontro
##edu
wanderio
prevalentemente
improvvis
stro
##96
altera
dinanzi
stress
##minando
marmo
assenza
virgin
care
sapevi
##56
isp
trasferito
sli
sfondo
polm
##mus
insegnanti
fedel
caus
tomba
scritti
fermati
1/
##tariato
rap
scendere
cifre
esprime
disastro
##turba
uccisa
proprietari
andava
las
promozioni
future
vani
led
##cciare
divieto
sacche
with
##simi
simboli
##">
##54
02
consecu
bastardo
chicago
100%
soddisfazione
##toli
mila
occupati
riproduzione
##els
compiuto
ripartizione
ancor
oce
dub
52
refer
efficaci
##-10
negativo
adam
ovvio
##losa
emergenza
##entata
##zionisti
efficacia
ossa
coppie
connessi
46
risie
##fatti
ryan
##mble
quotidiana
destro
creata
##mping
viso
bensì
pet
rimasti
##pola
collegato
davide
stima
futuri
prometto
transfrontali
britannica
abra
registrare
##lt
ei
raffina
##allen
eventualmente
kevin
##side
potenti
paler
##keting
##insegnamento
abbandon
musei
##vene
corea
##97
coltello
cominciò
##film
perfino
avvenuto
giornalista
cardia
utente
stavamo
orientamento
##aperto
omici
legata
costituire
##93
preparati
##beth
contento
(3)
##ption
##istri
apostoli
may
##trato
valutazioni
tipici
##roso
glu
dovremo
satellite
##altare
rafforzamento
liceo
amatoriale
ribelli
##té
sovven
##aereo
cesare
risparmio
otta
scherzando
##dicesi
elaborare
##ies
verona
subi
pila
day
cifra
usano
albero
favorevoli
volumi
pic
1982
matri
carl
gola
##ucc
cana
famosi
sangu
##wen
ingan
indicati
conve
##ía
##mari
##zina
compara
consulenza
sten
mappe
##0,00
##desidera
dog
missi
ano
##cchino
pubblicati
profondamente
recitare
fornitore
aspi
##elia
fibre
artistico
benvenuti
saggio
music
sportiva
peraltro
##diche
##-8
insegnato
portoghese
partecipò
##comi
usu
orologio
##:19
bonus
contribuito
controver
peru
tappa
conveniente
predis
##cm
larghezza
indovina
consentito
trovate
tuttora
identità
giudizi
satellitare
##aprile
regolari
vederlo
sostituire
##accetta
impegnato
##derlo
delib
premia
2006,
stradale
##""
restrizioni
##esclu
tecnologico
netta
veneto
sapi
jackson
franchi
finalità
golfo
perdono
bersa
patria
prede
transizione
em
scarico
ram
espan
##.20
slova
grasso
guerre
suss
ravvicinamento
##pposizione
coo
pietre
svedese
schema
##estro
lombardia
religiosi
approvazione
operare
pesanti
altamente
##-7
gratuitamente
sopravvivere
##cue
valida
47
##gasmo
##grafici
smart
delegazione
pensano
autorizzato
completare
destinata
includono
partiti
riusciti
##itali
sorelle
gelo
brian
condanna
riper
tesi
immaginare
4:
mento
architett
atteggiamento
java
dispia
sovrano
detti
##medio
1979
##affari
##ogg
##vedi
##vvigionamento
2010,
settiman
jake
definisce
uccide
flessibilità
1994,
divina
allen
hey
deserto
incante
##geria
ferita
56
2005,
gratuiti
impression
##elmo
camminare
##phy
argento
roberto
piemonte
cipro
scopi
indesidera
ash
naz
bren
54
scorre
partenariato
##craina
##erire
##dele
roger
cure
##derai
##oceano
1999,
ritorna
boschi
##dae
ritenuto
palco
diminuzione
##interpretazione
uniforme
intrapren
nobili
your
intervenire
giunto
campagne
considerate
power
dischi
##01.
autorizza
continuano
isla
mora
##mens
rifiuto
disoccupa
gatto
zoom
essenzialmente
rivendi
espressione
capsu
compromesso
##doc
alternative
##dicazione
gali
narra
attacca
##anello
##siva
guari
gioven
2012,
colline
padrone
##nl
specialità
##gnata
imperiale
##tribuzione
funera
mix
prassi
dimentica
##zzini
simu
nobile
pasta
complica
dubbi
1993,
domes
prendiamo
##goli
idra
sotter
coro
1)
discriminazione
##.11.
tornò
miracolo
64
padri
##agg
##approvazione
federico
mangiato
unita
##lay
fallimento
##mil
concernenti
uscì
fedele
tron
conversazione
chitarra
ato
milan
tenore
##tudini
##ary
##bian
##interro
costantemente
penale
composti
way
fumo
rati
corrido
##por
arco
prenda
pensieri
richiedi
entità
mancato
compiuti
bulgaria
##**
joseph
alternativa
##cello
brillante
140
beneficio
decisi
utilizz
bos
eredi
##less
logica
ye
suonare
cinquanta
##saggio
nov
differenzia
prendono
ritorn
frequenti
completato
decenni
applicano
prigionieri
##talità
##inquinamento
margine
##1999
mand
custodia
carina
1.1
aziendale
group
status
##],
##ttone
straordinario
opinione
aeree
diamo
##quila
realizzate
originario
11,
jaco
ringraziare
##emer
stanotte
bay
##armoni
ã
nottur
carbonio
##fino
aerea
##gari
##arne
2004,
buff
rei
##erita
bruno
##ttanta
vaticano
soldato
tribù
##inverno
operano
##cile
##elly
lavor
democratica
urbano
##ckey
raffred
mistero
intrapre
piloti
protagonisti
poe
esercitare
congratulazioni
fuggire
##geli
jeff
portati
grigio
aventi
##laterali
essersi
esperto
##vescovo
cho
##assassino
haw
manti
massimi
##smi
carcere
finta
coperto
pulito
diale
agricoltori
vettura
manifestazioni
##ttenti
##eriffo
inclina
##urre
##miera
paragrafi
comprendono
##alimentazione
palermo
sergente
introdurre
reclu
zoo
amare
tutt
##lfo
idone
girare
proveniente
positivi
settanta
##albero
osti
##improv
sposò
assistente
##ggiando
attuare
progre
1990,
13,
mete
circonda
##entro
##memo
fiumi
sfa
causare
##tum
##mbro
##culi
seriamente
schiena
ricercatori
##..."
##sori
##marti
farei
fissare
##even
##allar
##vey
##anotte
densità
lavorano
##tuna
eric
terreni
##zare
best
impiegati
##hl
debutto
carbu
12.
scal
talento
##ziamo
efficienza
costruiti
##mise
qualcos
##ttendo
riflessione
averti
estratto
##pon
##retto
##ao
2011,
sezioni
racconti
scommetto
##organ
##board
svanta
sarete
operazione
consumatore
pioggia
bea
beach
insegnante
melo
ceramica
segnali
lanciato
sacerdoti
##nea
siena
##uola
ricevette
venditore
preoccupato
dette
pisa
umanita
francisco
##sal
compar
ingredienti
##stel
press
anime
difendere
montaggio
cortometraggio
minimi
salone
preda
grassi
miseri
##tole
coperta
clauso
scus
rista
impazzi
reagi
contattaci
torni
bow
porno
2001,
veli
accusa
esauri
scale
##06
72
##teli
##det
richiedono
proporre
trasparente
religioso
ingiu
##pan
##stal
designer
equilib
##trico
steph
torta
procuratore
competizioni
torri
##inità
quinta
seduto
professione
jazz
cella
##cd
spirituali
##ctory
dipinti
musul
##set
puro
##basti
school
confezione
jones
candidato
##zy
##ject
##doro
ved
##cabile
gil
videogio
dida
professionista
specchio
mentale
condurre
##ür
cemento
chu
sessanta
macro
rimangono
straordinaria
raggi
mass
vendetta
vinta
##terno
curva
bevande
incarica
tanta
sfuggi
aiutarmi
presu
mandare
fasti
variazioni
martedì
51
prevenire
##ety
orgasmo
##53
##mentando
probabilità
bev
giapponesi
puri
lasciò
##"'
##roba
conservare
ascolti
ragazzino
potenziali
shopping
cadavere
remo
spoglia
casu
sceriffo
ricchezza
aiuter
aggra
fax
ampiamente
lentamente
amy
##albergo
buio
##bai
seminario
##bella
camer
buonanotte
##europe
challen
vedono
fornite
ricomin
chiude
apparecchia
apparente
##lei
rami
spessore
pacifico
##ais
avvol
residence
definiti
costan
iner
##ettiva
innanzitutto
preoccupazioni
##identità
##utò
##manti
frigorifero
quindici
##para
2007,
dita
trappo
avviato
##cari
sfortuna
holly
1995,
acquisti
##cing
pensiamo
twitter
forniti
diffusa
##ub
2008,
incidenti
scherzo
##ão
sportivo
impiegato
xviii
##thy
##erimento
critiche
##più
dovevano
contenere
##58
##57
##spru
tendenze
organo
creando
cortile
##gla
santuario
fattoria
ves
limitare
##ttò
//
2002,
complessiva
##mobile
raccolto
fidanzata
istantanea
##enaria
medievale
ruota
##zanti
continente
pura
espon
passeggiata
mail
nucleari
descrive
kate
14,
spaziale
fumatori
clic
missioni
fortunato
{
avi
##tsu
##yd
pantaloni
##ée
2003,
##cks
farcela
configurazione
##umere
resort
statunitensi
burro
rappresentare
##ska
codici
autonoma
contenta
subordina
socialista
##ficate
nin
##ggiano
##51
tim
latti
raggru
leggero
pene
risparmiare
manifes
tipica
(6
##onate
kra
protetto
percorsi
garanzie
suggerimenti
originariamente
##zzatura
bia
color
misericor
girone
##risce
parlano
diventano
impegnati
territoriale
ligu
distra
commesso
cookies
liquido
riescono
garage
mont
fondatore
##nuo
1975
logo
##tic
brun
marketing
siediti
reparto
##ennio
ebbero
##inari
port
ski
bacino
##ros
##ony
proro
ampie
religiose
##eterno
applicato
##eller
comunicato
conformi
vietna
disturbi
sistemazione
##mbu
##rore
diversità
##lito
##hen
dì
energie
saperne
rt
##ynch
elettorale
##nazionale
petto
island
apart
pianificazione
liberazione
##isto
matteo
mostrano
life
leg
maschera
lontana
elena
danese
1991,
colonne
##educazione
08
03.
vibra
fidanzato
##lum
##mpati
lt
tavoli
povero
corrispondenti
rileva
matematica
##thur
argentina
necessariamente
seguita
sessuali
##ison
fresco
chiamano
billy
citato
canna
folli
suggesti
riferimenti
##lex
temperature
parente
##ssano
emendamento
##ors
(18
introduzione
incoraggiare
##ellare
reggi
get
trucco
indicano
contenute
##cr
tommy
##fono
coste
verbale
egi
57
##incidente
##sura
##ssen
radici
accolto
vigilanza
##pal
affronta
##ère
##donia
##vino
frega
##vision
##strando
facilitare
funzionato
quin
terrorismo
##frutti
banco
avermi
dieta
system
averla
termo
kir
indicatori
hanna
##pori
##llato
vedra
lascio
potessi
mancano
fel
osservazione
telefon
turisti
sincera
geografica
##golari
inserisci
artistica
ay
##vre
##aren
poesia
consultare
fama
2013,
##tty
##tanza
claire
rimborso
interpretazione
ego
##china
arricchi
##comuni
johnny
viola
abbandonare
certificazione
boo
##riato
neuro
ros
attravers
occidentali
juni
avra
parlarti
residui
stock
conosciuti
imbar
tessili
cerchiamo
criminale
sfruttamento
avrete
time
alice
raccolti
##idro
##valu
abbond
##dum
battuta
continuato
posa
polo
manipo
##gelo
potremo
##geo
farmace
##hard
deva
cinesi
agenzia
aiutarla
##gger
##incarico
atlan
##pet
##erona
##sale
crema
gliel
esibi
ava
##mal
sentiero
compatibile
parzialmente
eso
1978
ispe
sigi
pelo
stavolta
irlandese
tabacco
##vuo
coinvolti
alpi
river
ispirato
pul
rimuovere
tortura
##gesti
collana
dispongono
natali
##grammi
comunista
sinistro
giurispru
rabbia
from
vedete
darti
salvatore
assun
##house
individuali
etta
preserva
fargli
##indipendenza
unici
passate
misto
giornate
##tube
xiii
gioielli
mostri
##avvocato
##heim
guidato
riparazione
62
strato
##leo
15,
marocco
ritira
##07
##ttero
land
##contin
##questo
robin
sanzioni
##gosla
paris
france
inga
##ammi
ottanta
##rest
votato
grafica
legislative
##uk
vasto
accoglie
syn
amicizia
figliolo
salto
pazza
emily
vorresti
conflitti
cimitero
sbor
pareri
serp
apo
bisogni
promosso
roccia
parlamentari
fol
##br
sparare
annul
intellettuale
porca
saprei
assassino
arrabbiato
identificare
##avete
formale
##appo
##zona
alleati
##ssio
tute
##ín
##ef
##ggiante
iu
determinata
perdendo
##tail
propa
convento
##ister
restano
##pedia
seguono
singole
##argomento
##vito
tatuaggio
accaduto
wall
mesco
##hy
bravi
sceneggia
troverai
terme
imballa
kim
collezioni
omoni
mostr
omicidi
piangere
##assicurazione
##ssando
lampada
##"...
evolu
verra
vapore
sospetta
coun
bilanci
dotati
adeguata
2009,
pne
vulnera
##viare
##uratom
uccisi
##down
condannato
salta
certezza
sonda
##agri
collegati
contengono
##kistan
##gona
dannazione
##aposto
costume
tubi
06
includere
stabiliti
anello
kla
appalti
ubicato
##sole
ipotesi
volti
##bc
ortofrutti
esami
eterna
conclude
##ttuali
brown
osservato
##dr
riprendere
laura
##shop
mela
leonardo
nastro
bin
code
eccolo
##09
loco
strategica
tay
sapore
cappello
anziché
2)
187
gioventù
avessero
pluri
ker
navale
edward
delica
north
legna
##................
occhia
riservato
affres
milli
eliza
scre
##="
abiti
belga
magn
apporta
puntate
esercizi
##ttiti
fecero
allesti
rivelato
spiegato
preliminare
pref
andy
intu
##ude
##matici
##erati
ombre
##rosa
ripristi
formaggio
dosi
##rista
frontiera
continuò
interprete
richiesti
1.3.
arresto
anten
impegn
esclusiva
magnifico
##08
trasmessa
roton
urgente
rachel
girato
assistere
53
mada
capaci
retroce
concreti
conosciamo
##cam
genio
##agosto
vittorie
vitale
associato
##dney
intermedia
confedera
pillo
##jan
##curo
##(9
civiltà
##linea
canad
##rum
settimo
bt
##granti
darmi
affascinante
difen
##celli
sospetto
sbri
moderne
viti
##script
##terapia
transito
jason
portate
terrà
speriamo
tenuti
##00,
scritte
##:30
amato
##tea
evidenza
accuse
modella
##ssica
roves
##iscri
informato
itinera
incaricato
tipologia
##equipa
09
giocando
volontari
redditi
xv
database
ascensore
arbi
grati
##ars
attore
svegli
meccanica
giunta
alter
##oltre
##(200
6-
allontan
anniversario
emozioni
##parte
perno
##libro
español
##mono
chat
rame
partendo
grosse
##alba
falso
installare
##chester
poliziotti
##sé
boni
suon
##ervi
affaccia
50%
##mmelo
##low
giovanile
giurisprudenza
disporre
bicchiere
baia
##mark
##ccol
separati
##.11
condotti
##fs
finanze
iniziata
accogliere
celebra
comunica
##ssie
##rena
coerente
salvata
##maco
attenta
figlie
scorte
andremo
picchia
sebasti
##egitto
ottenendo
arrivò
veda
##mbri
noci
abo
mettiamo
##tie
2010.
mise
guar
ya
marine
elettronico
vigne
vecchie
scozia
viaggiatori
cosiddetto
##isra
##ettivo
##metria
entri
scanda
##mista
correnti
igi
marsh
secco
ambascia
dovette
microsoft
giungere
laboratori
##scrizione
brin
##pevoli
nova
ospe
riportati
fortezza
##massa
##fina
lieto
segua
piaciuto
colli
succedere
sceglie
cassaforte
##vallo
##bul
##ttp
##vante
##...?
malato
united
appoggio
trasferì
04
07
lupo
##iro
killer
guardie
orario
low
##grati
eseguito
utilizzano
##oggetto
monumento
giudici
penisola
91
plenaria
ungher
##ulteriore
barbe
furgone
elisa
grossa
##rink
cugino
rallenta
fredda
##orn
domestici
consenta
criminali
aggiuntivo
##ungh
generazioni
##,"
##trio
informare
##trali
coinvolgimento
##glioni
endo
barry
restauro
svolgono
cattolici
ferite
##ssor
##vando
quantitativi
##lene
##letti
adri
asten
innocente
page
tropi
suppongo
tentato
corruzione
tengo
1976
rimosso
weekend
consac
trascorrere
##richi
stipu
cavaliere
mettono
sottoti
59
riviste
letteralmente
##dap
armato
discepoli
eroe
cantiere
##episo
1977
##urrezione
saremmo
accompagnato
applicata
istituzione
viste
rappresentanza
risca
sigare
##organismo
##dinanza
persa
peccati
amministrativo
scan
approva
egitto
##tropo
anal
##rima
##natura
risve
##ggiù
##tron
##estern
##ario
##fal
##assenza
chimici
cresce
deroga
messe
pota
inevita
leva
dignità
##ranio
georgia
inverno
pompa
##trando
58
laterali
16,
trion
dottrina
##cheria
2005.
##onde
validità
riuniti
muoversi
ny
rota
prostitu
produttività
ospitare
preferenze
2014,
giuda
##shire
##ziano
attentamente
rientrano
##dad
florida
rocca
portafo
incluse
fantasma
##reg
##fen
##xa
dissi
padova
##plo
estera
nan
ruoli
hal
##ossi
prendete
fire
##porto
folle
uk
##nita
##strato
##esempio
appello
saluta
##ttra
denominato
##ccano
lasciata
##frica
formata
strati
disturbo
hil
medesimo
intenso
##dorf
##nando
##kins
poeta
lana
giuria
seta
menta
game
culture
trage
significativa
##minazioni
giudica
avvenne
parecchio
divisa
spettacoli
##ficante
incremento
##derò
2006.
last
contattato
allun
volere
scienziati
legami
vincendo
##ganza
compare
convincere
adeguate
rispondi
uscite
##aron
pericolosi
kong
percento
dirò
##198
##therine
##matiche
contrad
##secon
sottile
cittadinanza
spogliarello
alimentazione
##vocati
##mela
##inchiesta
sw
##ermi
spedizioni
##ventura
med
##fatto
##5%
mancata
##cché
##steri
variabile
mace
porterà
barre
partecipano
gastrono
pensava
privilegia
continuamente
texas
ospedali
##quando
pacchetti
22:16
##amico
sacrificio
venisse
penti
##.4
##tton
atter
##improvviso
pellicola
##mali
pertinenti
##mentata
hd
yu
conservato
ultimamente
casca
fascino
##.).
meravigliosa
tramon
fit
prossi
##tos
monumenti
##zon
##bbie
##solo
phil
disso
##dom
##mentazioni
##ap
stronzate
tenga
pasqua
30.
avventura
sbagliata
1970
##5/
troveremo
imbo
concepi
##-11-13
cade
proteine
opzione
accon
minerali
presie
minacce
flui
##fun
##chan
##ghiamo
accogliente
##steroide
potreste
##llon
istituzionale
falsi
##asc
vomi
gesu
22:16:19
sicili
##alleanza
##esima
water
ragionevole
naviga
ritornare
copy
nascondere
conseguire
##enzione
dimora
brand
sposata
litu
pino
brasili
codi
##unita
sportive
##mel
dotazione
lettore
##//
cristallo
cerch
pagh
##versione
celeste
robot
jona
series
ford
sano
kh
filipp
south
atene
apparecchiature
cosiddetta
##llina
vere
decennio
##datura
##intelli
fisso
prossimità
bat
beneficiare
##istici
sottoposto
iniezione
##accusa
bobby
##max
creati
enormi
decorazione
rinunciare
elettrici
completamento
aperte
agra
stabilite
imprenditori
smesso
cater
##phi
##gnore
troia
conseguente
erba
##drome
trasformato
russi
##lam
ginevra
##gr
laser
sfera
distre
intesa
ix
spiegazione
##gliari
##pher
pollo
##imposta
fumare
negativi
doug
reception
ramo
profumo
smalti
bombarda
##architetto
sottoposti
03
stag
benzina
##cultura
##arità
operativi
prezioso
##ghetti
##ugna
equivalente
toccare
assorbi
fegato
orchestra
strutturale
rinchi
sorgente
sospeso
quadrati
##ranee
project
gugli
sonora
cioccolato
tecnologica
orribile
22.
##goslavia
scomparso
##ingh
hill
impegnata
audi
ingran
##episodio
17,
##uite
attrazioni
incredi
collaborare
cantare
distor
illegale
caduto
calabria
##bbre
diversamente
siria
barbecue
tol
orecchie
verticale
palestra
aggiornato
##rence
drink
##===
avan
josh
italy
##inglese
pannello
celebri
grace
costruzioni
scrivania
##gole
##polo
destinazioni
ridere
rurali
##em
fedeltà
provoca
##viglie
dinamica
junior
sider
circolare
##mbio
allenatore
##emergenza
riemp
##colari
serbato
organismo
diviso
##appare
##tures
degu
##enn
##zzante
metto
premium
■
français
2007-11-13
flessibile
terrestre
xxi
disper
gestito
creature
ella
interpreta
cancellazione
##tria
pazz
avversa
visibili
esaminato
disoccupati
disposti
##mont
restituzione
credono
##!!
buco
concezione
risolto
aiu
hong
prele
##zionate
##tine
sorte
derivati
impronte
rest
sopravvivenza
svolte
xiv
##cade
pneuma
160
##cl
rassegna
obbligatorio
turistiche
##bour
felicità
espressi
circondato
##aggiun
versi
decorrere
sbaglio
inietta
senatore
satana
trasformare
cameri
passaggi
esplora
installato
gan
offerti
incomp
ascolto
approvata
##investimento
slovenia
preoccu
pressioni
harris
ripeti
comunione
guido
critico
nervoso
visualizzazione
##sburgo
volevano
riflettere
2015,
24,
turco
sbaglia
prato
(201
##ggiamenti
86
giocattoli
##orbita
rispettivi
sostenibilità
inden
rivolto
povera
diventi
alcoli
sovvenzioni
macchia
ear
18,
##lento
##mate
wood
guardami
##tas
##aux
uguali
torniamo
vegetali
legislativo
grana
mantenuto
ehm
trasferisce
lavoratore
sottra
ottimale
amanti
insegui
incarico
armate
praga
##zen
museum
confusione
##unio
scarsa
lasciamo
sau
13.
arrivi
dito
##grante
grano
##infanzia
130
occhiali
virginia
taylor
##cisione
integrata
equa
##inclu
##wei
cuori
2.1
fenomeni
##aveva
##allora
attribu
##:1
edilizia
carlos
fisiche
interessata
figurano
patolo
finanziare
fresche
trasmettere
##201
specializzata
##testo
well
metta
##zzanti
levi
miele
calcola
##reria
folla
fantasia
originaria
##ltra
77
bicicletta
20,
duomo
vederla
accidenti
variazione
turistico
temporale
oliver
renale
solleci
invernali
preoccupare
teatrale
##ggono
servito
umb
pete
##row
##appren
##guo
pulita
##iscano
##prendo
sedie
confortevole
rinasci
appi
fidati
separazione
esistenza
diffusi
sna
scientifici
championship
novanta
##ziosa
compressa
ortodo
esportazione
##.201
##ssori
copertina
service
##dabile
pianoforte
esci
thai
##dll
pay
##pin
##visto
sii
repubbli
topo
dovuti
##erba
##cuo
##gruppo
14.
altrove
1998,
divul
odier
equ
commission
##specie
arthur
tavole
determin
ideali
law
dean
##ghts
sof
indossare
sedere
##avan
dirle
pse
##ombra
guidata
ivi
offrirti
kay
mega
tentativi
comunemente
##utore
1996,
pension
marittima
tin
66
1973
calmati
cod
force
raggiunse
darà
##ration
occupata
plus
sopranno
veste
crimini
aumentato
eccellenza
his
basse
night
700
##mé
concorrenti
provando
brescia
london
spinta
omaggio
battista
greci
##rda
raccolte
2012.
respiro
zin
##lee
arren
superfi
##sina
aggiornamenti
christo
ea
##pea
nozze
elaborazione
##agriturismo
alz
over
dovreste
##derla
masturba
mantiene
bacio
##gement
deputato
##austra
testamento
##ciliazione
2009.
##orchestra
lama
##laterale
##israele
##rome
mangi
sensibile
orologi
sostanzialmente
robu
riservata
hank
##sser
login
##musi
##ccante
coerenza
addor
ripreso
accet
##verò
elizabeth
##uolo
96
carburante
cabina
guide
archivio
trappola
sconvol
riforni
rinnovabili
ritrova
williams
##weet
##bir
##mona
femmina
fissati
facevano
fli
ple
##imb
installazione
slot
cocco
scenario
farne
svaria
##/1
tasca
storiche
##dea
##rey
##ggy
teme
vincent
oneri
offrendo
##finanzia
fontana
educazione
made
sottop
rilevato
collegare
##cussioni
siderur
1989,
suoni
registri
sequenza
stomaco
restaura
##eliminazione
controllata
##approccio
[1
victor
nomen
##iscrizione
liberamente
invitati
recla
lesbi
occor
sodio
15.
##kyo
attaccato
oil
sopravviss
##://
berga
consapevolezza
##infra
stup
##sopra
mosa
corti
93
cavalieri
cfr
autorizzati
vent
undici
reputazione
votare
uten
studiosi
ef
rimp
formano
esclusivo
pizza
complementari
selezionato
piastre
trieste
chan
##archia
cognomi
splendido
luke
psichia
conoscono
125
trascorso
##ottimo
concessi
vedrai
##kan
##bate
##plici
accessibile
fioren
corridoio
tunnel
chiarezza
contribuisce
effettivo
morgan
##entato
riv
##uzioni
assemblea
bacia
2008.
barra
bersaglio
dino
##bola
##inger
hot
pesa
cessa
riduce
faccenda
##ficazioni
##quanto
esserlo
artificiale
β
mun
scende
concentrazioni
diva
##inva
abitato
dominante
##mide
trattava
rito
##istono
impon
mezz
€.
svolgimento
##ties
partono
guadagnare
bianche
brook
##rdi
logis
pastore
##ziosi
salari
##sul
##chine
##fred
##cetta
rigido
##rine
##dapest
ferrari
23.
scolastico
confermare
##tipi
vela
##iacu
dargli
estrema
cooper
kan
insa
mercedes
##tã
armata
scomme
trovò
##pale
arabi
copyright
##nt
esau
telecamere
bizanti
oscar
##stano
1974
pana
javascript
general
primario
pannelli
5:
cantina
precisamente
squi
chiacchi
provinciale
accettate
palestin
arrive
##archivio
abbiate
procede
commissioni
juan
ricetta
elaborato
vincitori
##capelli
##inea
##ttolo
ace
##bes
##fichi
2004.
ostelli
##xel
espansione
##bene
pericolose
periferi
##-20
togliere
senato
applicate
scuse
rappresentata
spettro
esperimenti
##ings
##gena
61
borse
impone
josé
piste
mostre
giacca
elevate
##ople
##nazionali
pomo
##rich
cancelli
##1994
cano
##sivi
##/92
preferita
92-
98
guest
api
olimpici
costantino
abbigliamento
affidato
##-12
convergenza
guglielmo
litri
eddie
consor
aziendali
lac
##fis
appropriato
sesta
lavanderia
##bilita
##elettri
##enico
rilevanti
magistra
annuali
western
produttivo
basati
(4)
2000.
##utico
fresca
##anesimo
sistemare
giunge
johnson
resynch
round
coa
##ppato
fermato
light
rottura
creatura
chiamava
avvocati
##intervista
ferti
##coltura
110
##ambascia
telaio
nomencla
1972
dimostrazione
sana
##ttata
talmente
##very
attivamente
enter
##gò
deboli
prosegu
ammirare
ammettere
giuridiche
charlo
susci
retta
aspettative
##vier
prefi
fastidio
##cerà
musicisti
lacri
preoccupata
ltd
lottare
gravità
##erta
improvvisamente
lasciati
vende
cuba
ricorrente
parenti
cum
##mbh
chiuse
considerazioni
terape
aggiornare
##ccidente
##mala
##urs
##nell
##armata
driver
colombia
##ec
commedia
##compre
andartene
alan
resistere
esposti
dipendente
##animità
ern
operativa
forniscono
senz
rapina
raggruppa
capita
##ciclo
grossi
debbano
richiamo
pip
2013.
94
femminili
coe
rari
##ensiva
##bitat
84
creatore
volare
##annun
calza
combinato
boston
dosaggio
##esigenza
intenzioni
terze
luss
look
esag
ettari
pat
##grande
pp
stradali
gang
2015.
##piano
dovevi
pierre
19,
american
quaranta
ritratto
cape
budapest
##rado
adottati
dinastia
lad
pira
persi
moduli
affidabile
rinven
2007.
mosè
profeta
rubrica
produzioni
rubare
tempesta
gesto
molteplici
bollettino
lux
clark
2011.
carto
particelle
catastro
professor
frances
##donesia
##organo
insegnamento
cagliari
patrick
trasferimenti
accusato
biancheria
scom
innamorato
##gali
avvenire
scientifiche
##rosso
concedere
dazio
sigla
##armonizzazione
sorprendente
184
osserv
chuck
debi
73
intri
29.
fissazione
##circa
68
##quali
misericordia
mantenendo
esecutivo
rick
raven
##aspetta
##mosferi
consigliato
garantito
rebe
##otta
petroli
360
##cchini
litur
depressione
televisivo
trovarlo
##equilibrio
creduto
istituzionali
##iani
##ellino
lavatrice
insetti
##cciolo
divorzio
droghe
joh
nati
morendo
π
avval
##lé
##lite
##intenzione
solari
coca
contribui
approssima
recita
clinici
dure
##formi
steven
riconosciuta
dg
hun
quand
appositamente
magli
kara
crediamo
##giamo
esord
obbligo
manto
jacqu
sbar
vietnam
arrabbiata
certificati
ps
toni
##gela
fogli
autonomo
analizzare
##guarda
andarsene
ak
lieve
##ssel
compositore
techno
tagliare
supplementare
##sis
sculture
##moder
provengono
(0)
##sterà
##ruzzo
invisi
indesiderati
vedremo
divenuto
lontani
strategico
##ggie
##ghan
##tle
##ettori
challenger
sass
hol
76
##ioso
inserita
minute
abitua
cornice
sussidia
##mc
16.
arrivederci
dipendenza
salvaguardia
##plica
raramente
##orsa
nere
raggiungimento
##fezione
atmosferi
distante
##pad
spalla
tengono
tradurre
assicurarsi
istituire
sensibilità
preten
contenitore
·
78
##orrente
##uela
aiutami
##impressione
88
sepolto
lettori
lavorava
offriamo
strega
sentita
lisa
concord
##viato
giuridici
##originale
christian
##oniamo
##ssin
affare
##bol
##hel
##__
conn
fatica
scuro
vinco
east
iran
definite
##guerra
dave
##tá
mensile
tenne
##uer
chiedono
dira
##:3
##mir
##ipotesi
alco
toller
peti
count
colpire
sviluppata
sofferenza
concilio
privo
migra
rivestimento
##zzatore
##orario
blocca
agn
domin
##ense
proposti
teste
concrete
veleno
ricordate
##colta
##inare
booking
attenti
costitui
farvi
1980,
miglioramenti
sudafrica
##...)
##aula
auguro
sposare
##foro
motivazione
##molo
gb
10%
discusso
stiva
multimedia
orizzontale
rifugiati
##bine
convincer
##tain
qualificazione
##tecno
alli
##incre
investitori
##alli
tocco
##apostolo
##orme
cv
##cto
##lancio
indicata
marie
rotazione
1997,
evangeli
chimiche
impostazioni
normative
trarre
omolo
reciproco
ucciderlo
sean
ferroviario
##iate
bevuto
tono
key
##cast
trimestre
indirizzi
##wis
raro
margh
classici
##ceri
##xx
##lismo
denominata
##case
##mun
gord
purché
diagnosi
##equipaggio
##tech
significativi
intratten
trofe
sanitario
##esplosione
ricorrere
chiediamo
##ela
##llela
determina
miscela
sviluppati
segreta
sanitari
stanco
31.12.
##encia
davis
spinto
pratico
interru
esplorare
foro
ridicolo
young
analoga
grandezza
69
##ssata
ferdin
delegato
##ziato
63
gmbh
armati
govern
riportare
##andono
schede
interroga
dere
long
costumi
##tish
vergogna
dublino
eliminato
rita
##avrebbe
##ingere
dritto
barbara
ginocchio
marittimo
dapp
avanzate
sbagli
pubblicò
6–
parchi
##cista
orientali
##perta
pazienza
casta
##troni
##kg
riga
eno
sindrome
semplicità
intitolata
sportivi
firmare
dirige
sistemazioni
ammesso
terremoto
##guay
teresa
minime
depre
instan
ungheria
stocca
sommer
http
wc
muto
disgu
indicate
bloccato
beneficiari
adempi
raccontare
21,
into
pubblicare
bisco
##uth
imi
sec
rilevare
seppelli
clan
nasconde
vorrà
speravo
rettan
dedicati
lily
insegnare
consultivo
##mettono
inteso
tornati
alexander
##lic
primaria
##llone
affreschi
2018.
dott
##allena
filtro
##-00
cospi
console
gun
beth
inox
900
difetto
campani
ride
avvenimenti
##lls
ascoltato
trento
pole
digli
adulto
##diale
percepi
26.
andrew
peda
indagine
complessa
##zine
##genera
smette
aiutarci
perdona
parallela
giunti
comandi
copre
à
intraprendere
wilson
amministrativi
hay
č
polacco
##molto
aven
##minente
stabil
##card
fornita
giornalisti
geografia
evidentemente
inibi
chiare
chiederti
falsa
prevedono
suggerisce
susan
contingente
##cione
##misti
##ranto
##cendio
fondamenta
##elemento
sensori
tragedia
##derson
people
##immi
28.
biologica
economie
##autunno
permettendo
venduti
##avvio
##informazioni
nudo
soglia
climati
scrivi
piaceva
chef
##plice
continuerà
pregare
aggressi
27.
continuità
##quio
quadrato
pugno
central
ghi
esposto
##cinque
connesse
condivisione
97
mercu
tagliato
##hof
##guaglianza
vicine
criterio
##avrei
riportate
##avviso
testimonianze
##vii
##ungheria
lotto
adolescenti
cau
asciugacapelli
asilo
patate
##time
colloca
appassionati
victoria
wei
casinò
control
##/3
savo
riprende
carter
svizzero
##kar
ky
bionda
curato
salita
vincenzo
chiarire
impi
lucia
spagnoli
selezionati
differente
abro
miami
##000,
179
apparentemente
roo
diego
rovinato
##mismo
##ppone
##aquila
bevi
dapprima
##scenza
##har
##los
concetti
##onu
boy
nient
nate
telefonata
cock
##immissione
nomenclatura
##utilizzazione
raddo
profitto
affermare
##ppy
iscritti
##ganda
##eventuale
costretti
aspettiamo
ht
little
82
integrare
##iato
discesa
collettiva
defici
unisce
##new
gel
crona
laggiù
##key
globali
conquistare
grotta
diletta
##ibi
appartengono
jay
67
iniziali
zelanda
affidata
sirin
esercita
##mpson
virtuale
charlotte
avro
medioevo
somi
ragazzina
eleganti
rivedere
tokyo
riservate
##zone
sterline
bernard
raccogli
nozione
attende
catturato
##worth
attaccare
prosegue
wrest
ammira
perugia
##erità
bui
##ttono
longi
bosnia
sili
fallito
##sket
grandioso
reggimento
dirtelo
##:2
regolazione
pescatori
##hara
buffet
giulio
suicidio
##org
infezioni
lanciare
tornando
segnato
spina
##sol
##roma
pellegri
iniziarono
iniziano
regali
circolo
indiano
##ranze
sven
»»
2014.
replica
provenienza
mir
##cti
trama
variante
institu
jet
10/10
viii
##elezione
castelli
colpisce
aboli
dirette
contrassegna
amministratore
chiusi
feed
richiama
fascicolo
parma
##med
domenico
accomo
capite
divino
attrezzata
prestare
masturbazione
semia
##prin
dj
basate
andarci
redazione
##attra
##cismo
howard
indiana
raccontato
liberare
rue
preferisco
zombi
pericolosa
mounta
commo
coloni
complicato
divisi
##ampliamento
funerale
wes
compone
distrutta
##pse
##pubb
fotografica
swa
##ssand
shel
broad
season
##chere
cieli
preco
##istema
prendermi
trauma
snow
rimozione
2003.
brad
johann
##camp
faq
annu
rispettive
sopportare
laghi
ua
mee
##bbo
##ttute
pdf
commemo
rispose
ricarica
prodotte
serviva
##citi
intendono
servita
gravemente
meriti
decine
mentendo
##inde
youtube
entr
scozz
guardato
motoci
##stina
elettriche
rifiutato
##llati
assurdo
elettronici
##tismo
seguite
ricompensa
cintura
gor
caval
compensazione
##itati
proviene
usb
volesse
mediatore
corda
volontaria
ima
andrebbe
bona
risultare
tantissimo
lucca
thea
alimenta
##zar
1971
samu
##unanimità
##urgenza
alzati
acqui
incapa
ts
cercate
##videnza
ispirazione
liberta
##blu
giurisdizione
approfitta
nascosta
allarme
mp
store
episco
0.
prescin
management
kon
depositi
aggiuntivi
##sibile
costituzionale
##bete
this
operai
gatti
pozzo
battesimo
##00.
##vers
dirgli
nano
occupano
lenti
serbia
cannoni
riparare
##lavoro
informativa
plasma
(16
3)
cassetta
rimor
illuminazione
ralle
##-01
metaboli
laggiu
##super
risarci
##binetto
intese
single
urbana
tenda
ipoti
##stat
79
wire
interfer
ungherese
chrome
kelly
##teriale
##tini
17.
ascoltate
tematiche
pensarci
dovute
##tteri
cile
##ille
buro
##nik
##anese
centre
##dolo
esco
faresti
fitness
cammina
repertorio
119
vorremmo
##inserimento
striscia
old
riflette
spavento
fucile
martino
russ
flussi
scaten
segnala
##sas
prodi
consegnato
succo
0,00
##betta
##rete
fen
tunis
nik
funghi
pagano
parlava
vicende
lucy
coordinate
mes
rendimento
cb
1968
atleti
aggiudica
sina
capitoli
pastorale
andrai
albert
insulina
dll
terminato
tifo
democratici
dirvi
batterie
prescrizioni
fox
scritture
##orologio
esteso
bli
gradualmente
##amica
##war
##disi
##lire
archivi
collaboratori
blan
sopporta
timore
cori
obie
elo
matto
danneggiato
fes
disney
combustibile
biciclette
##avanguardia
rivelazione
##ulsione
##imm
ricicla
abitazioni
##cara
##mettendo
1982,
datori
verte
umili
delibera
accol
serva
volessi
innumere
ingo
desk
##haus
##aggiunta
##rc
##view
##inazione
demoni
muri
##tista
funzionale
aiutando
##gers
##fc
lamenta
prigioniero
urbani
permetterà
##ful
##pl
##lisse
##lleria
laterale
##.),
##visti
giovanili
##cula
maj
##cket
utensili
dotto
apprezzato
festeggiare
##lago
mons
##vard
stanca
##onamento
coinvolgere
##-15
adeguati
catalo
##ciati
##ospi
raccomandato
prem
policy
##ea
settimanale
stabilimenti
##ov
##errore
situati
bancario
##inanti
domici
##zionista
tentare
society
bruce
##omonimo
touch
sorriso
eiacu
##sima
mesti
sauna
astrono
designazione
nc
dirigenti
qualifiche
scru
##ciatore
febbre
harvey
casella
napoleone
cis
contanti
riportata
pugna
figa
giunse
obbligatoria
sapienza
miller
colu
stran
81
tolto
astra
norveg
##acquisizione
tedesche
1.4
pompe
baviera
basti
pesi
sostanziale
affrontato
cristianesimo
lag
ripetere
cieco
armonizzazione
condo
trascu
rilassati
##ecu
hea
beta
sottotitoli
elico
prelievo
##unda
carità
pair
quattor
stone
desiderano
##nate
mito
##pposto
bit
imporre
sorpreso
benedizione
##oru
##dos
jord
imple
comitati
##cei
mah
##anime
good
successione
cerchio
budd
canadese
suprema
statali
##insu
lento
##boy
postale
##attore
##zzeria
trasferire
provocato
adige
jerry
innumerevoli
##mili
vendica
tasto
identificato
##bury
palli
olive
country
stabilita
amante
tirare
##/7
vegas
resistente
positive
74
britannici
##quadra
debutta
karl
87
fumetti
##enorme
allegati
az
##====
accoglienza
##gior
##rini
coach
##inge
furto
permetta
##immigrazione
secca
parecchi
##tempo
apple
baller
##regione
correlate
macchinari
1981,
veterinario
1,5
castle
##demo
asteroide
##fore
drago
party
immediata
distinzione
##dante
##attivo
posteriori
##wick
##gibili
associata
gusta
ritengono
##vecchia
##mph
beau
boe
##lett
successore
##azz
##bell
soph
rosse
2001.
##aggior
##magne
rispe
budget
cancellare
critici
cartella
##rosi
accessibili
##villa
volante
##assunzione
otter
calcis
##ecli
apparire
##/80
10.000
registrazioni
##cardo
versetto
avrò
##mena
##trona
incol
##metrica
##cemia
##attrice
##quet
burocra
misurazione
servo
radicale
accetti
collegata
##merà
jere
disputato
camino
##governa
know
registrata
concluse
cross
eseguita
scontri
infia
comparsa
federali
dl
##ches
gallerie
gary
uccidermi
sperimentale
¡
stando
##sive
##visioni
elimina
diario
telecamera
gordon
##landesti
sconosciuto
2002.
maestri
##invasione
##wal
considerevole
affetti
##fl
ordin
##dienza
rendi
lasciano
avvel
##tory
adattamento
cristalli
##kers
times
provocare
##fice
collegate
##limi
##asi
blocchi
anelli
##mercato
##ttezza
rovin
dollaro
diviene
romp
protetta
fiamme
divinità
romantico
##list
foca
pubblicate
fibra
mutan
profu
risparmi
aga
atmosfera
arabo
mosche
pack
##cta
medesima
##tteria
aiuterà
panico
tumore
supplemento
condivide
verificato
criminalità
##ficò
##diocesi
spunti
negativa
annie
marrone
chimico
disegna
muovere
ringraziamento
rimpia
etiche
comportamenti
turni
amanda
feriti
prevedeva
michel
##logy
trent
##bach
italo
quer
catene
calcolare
##carbu
meli
poca
franca
seminari
ib
idrau
intre
navetta
eccoci
##put
riteniamo
##pare
##lding
pazzi
word
soffitto
##vò
swi
read
temporanea
##tite
temporaneamente
##sea
licenze
(9
abito
##sil
camicia
mediche
tara
rivel
##gnante
##goni
##porta
conviene
vedova
semestre
who
attribuito
pompino
seni
##velli
caterina
##lands
##cena
cartone
##taneamente
olimpiadi
evo
sostengono
bang
assicurati
ugualmente
statue
champagne
##odore
salotto
celebrazione
##-18
averne
racchi
##vei
urban
periodica
##mondo
##ndosi
adia
basket
spencer
assegnati
rocce
romanzi
catturare
tenute
convenzioni
interrogazione
stadi
barone
somministrato
dapper
##avre
lasciar
specializzati
integrati
descrivere
anteprima
varianti
adria
reagire
(15
soddisfacente
##sar
##opposizione
visibilità
penetrazione
risalente
##osa
aromi
##ronto
##ingegn
attendere
##anculo
agisce
preziosi
proiettile
(+
immediato
##doni
##reo
gentili
##tonio
bentor
odore
##orientamento
formazioni
tabelle
accompagn
pioni
vivente
completata
##autobus
abbraccia
##devole
malati
consulente
2016,
curare
peculi
serena
teologia
rientrare
##"".
rey
clandesti
congiunta
1979,
apprezzo
dante
##"!
##erno
obbe
attrezzi
variabili
##ssido
amano
catania
avanzato
##tereo
investire
aerona
estendere
##visore
gratuite
mezzano
dappertutto
andarmene
##pers
agio
incendio
svolgerà
protegge
provvisorio
specializzato
elencati
collettivo
decorazioni
accad
ottenuta
##entità
consultazioni
##hop
julia
20%
intrappo
magnifica
supersti
fossimo
barriere
filtra
jessica
tazza
sno
esca
australi
impar
ubriaco
##nal
mercanti
table
##TM
183
ingegneria
fanteria
350
cat
cale
nathan
vaso
##agenda
flora
perduto
consistente
##casa
town
##4).
1969
awards
frigo
concentrato
##sty
##-30
mitch
tendono
segreteria
giulia
##ig
clausola
fossili
##espansione
ina
ripuli
soppressione
bolli
mentire
sconti
baro
reato
facevo
anoni
alquanto
solido
##apprendimento
laddove
documentario
dirci
pac
##capi
##terie
compatibili
ambiti
ognuna
pulire
declino
costiera
generare
gestisce
lass
estin
complessità
innovative
sle
division
agevolare
##dure
timo
##mmia
spinge
##universi
##km
reciproca
##ghanistan
mettersi
scappato
prescindere
##abbazia
##arresto
1967
saluto
wolf
##esel
1960
coglione
investiga
coltivazione
6:
sofia
lewis
novecento
organizzati
procu
##pus
delu
concomi
##uria
troppi
ripi
subì
caraibi
insufficienza
magico
fragi
casale
succedera
usd
soddisfatto
##/93
pel
battere
vetture
garda
concreto
uccello
boss
##acido
casalin
quartieri
finlandese
palu
##dumping
permanenza
sentiamo
etero
kb
pattu
22,
penn
##essa
ones
##avventura
##scoli
chili
##dela
ebraica
perpet
dimostrano
dc
ire
##sport
##conti
piaccia
pericoli
nn
ww
cover
pieni
tora
labbra
cattolico
toccato
1.4.
bass
that
##ttiche
creatività
##morra
queen
maturi
##ellazione
effettiva
prema
##perché
##fio
gabbia
insegnamenti
scontati
impero
ordinare
end
infiamma
hollywood
pavimenti
##gby
uniche
181
tes
##cinetto
prenderti
assistito
lituania
##dopera
silver
costretta
stefan
listino
eccezionali
##ttuti
legislativa
concessa
main
incoraggia
societa
immigrati
esistere
tramonto
cilindri
calci
bilancia
cloud
##bare
sasso
utilizzazione
karen
##ghetto
##nc
##egli
potevi
express
##eroe
##pr
##pato
controllate
portarono
##prodotti
attive
consumi
##dé
fos
opposizione
lazio
12:
##autostrada
crederci
intensità
producono
campanile
previa
messagg
microonde
elec
aggi
adeguatamente
cry
##strona
##,...
##bet
##sur
##disse
entrati
rinnovo
š
terry
duo
armonia
stipen
contrari
cente
dimissioni
sapendo
bilaterali
frie
medicine
inaugurato
debolezza
andrò
jordan
debiti
ox
aiutarvi
mid
##utique
solista
##/90
espresse
calibro
##tson
margherita
##ob
photo
taiwan
jersey
trasferita
wild
emilia
##giano
##cario
punizione
polmoni
##australia
compatibilità
18.
1919
integrale
credimi
rimani
stephen
mezzanotte
piattaforme
scoppia
riferito
##asta
secondaria
esista
yach
##dervi
##ines
19.
##gram
sgo
toglie
irra
mountain
##grina
cusc
garantiscono
sponsor
portafoglio
qualificata
conquistato
riconosciuti
tomma
tardo
griglia
sposati
sound
muscoli
ebre
##dicesimo
dick
isolati
distingue
spettatori
dettagliata
##)"
rivoluziona
respinto
##urus
ceduto
finiti
##cil
ec
sosta
orta
spostare
dolomiti
scompa
cinematografica
cupola
bombe
preparate
esorta
contribuiscono
slovacchia
steri
raggiungendo
eccetto
titan
cattivi
scandalo
acquisire
202
##sala
mediterranea
insigni
##das
riusciamo
dettagliate
cresciuta
farina
giudicare
(7
##indice
collaborato
hans
migranti
##appoggio
usufr
tornei
vaga
##lins
grant
agenda
sospettato
sostituita
viale
matrimoni
piene
ricostitu
sinceramente
##toriali
valencia
sangui
vegetazione
appaiono
freschi
cristina
tracciato
rena
##ianti
##zzarsi
manodopera
10:
klaus
celebrare
##ccidentale
(17
viaggiatore
ferrovie
##dol
accelerare
bank
menzionato
rom
suggeriamo
food
tariff
prenderlo
bizz
tradotto
##amici
##sting
cc
contava
filtri
manovra
diventerà
incontrano
capsule
austriaco
attirare
acquisito
autunno
isti
accid
##colle
cion
tradimento
secre
calcolato
reno
rilevanza
semplificazione
patologie
##grità
1977,
anato
entrando
vedermi
salvi
estero
2016.
beve
licenziato
classic
pillole
ebbene
claudio
emissione
formulazione
promesse
autonomia
imposto
bou
tecnicamente
##fera
##nance
circostante
inquie
affre
paesaggi
maledetto
##alth
##utiche
previsione
poté
##poni
procedi
centimetri
accompagnata
##conne
concentrati
identificazione
glen
sagge
diventati
perdon
assunse
##ree
1999.
stereo
dialetto
rou
gelato
stemma
viviamo
20.
ghe
1978,
preghiere
imbarazz
71
89
display
##bama
mele
dichiarare
circondata
tornate
contingenti
contadini
rompere
##under
scusatemi
og
interrompere
prendersi
spaventato
sfortunatamente
bour
ripetuta
##loe
stupe
location
sentivo
comanda
diss
piombo
telefoni
importazione
##quota
combinata
richiedente
2,5
hitler
invo
##discono
raggiungibile
2.2
arr
residente
##unity
ian
libere
##mara
mitra
bimbi
chirurgia
sfuma
ripercussioni
indipendenza
troppe
105
##intento
eccola
eravate
##lation
esemplare
inclinata
##glieria
ricordano
vla
bai
immerso
olivia
schiaccia
attraversare
eliminazione
sveglio
31.
suba
facilità
visitato
antidumping
risorsa
trazione
##ffanculo
indici
torner
passano
musulmani
intendevo
israel
modificati
accons
monica
maiale
aspettano
criti
##num
domina
dicio
superi
follia
sincero
progettata
confederazione
pecore
chiamami
##erate
accia
##tonia
sentirsi
separata
negoziato
colloquio
ucraina
quantitativo
##finale
viv
tirato
iscrizione
##conta
teorie
attin
contraenti
gray
##mburgo
affetto
##cams
soggette
##pc
##vore
sborrata
eroi
divisioni
eterno
meccanico
##wski
musicista
lordo
avventure
##hol
giornaliere
zombie
aspet
##rona
doni
bali
girl
##pena
immissione
lavorò
caos
##vana
adatti
concorrente
convegno
cotta
##velo
olanda
mezzogiorno
attraente
evidenziato
recepi
ricevono
comprendeva
(8
stimolare
bergamo
kat
##fil
uccidendo
credete
diffuse
##cao
##onendo
impedisce
fiat
2017,
corporation
##sus
polveri
torrente
##zato
sapori
enzi
colpita
##intelligenza
emerge
(*
##indo
escludere
penny
donato
ms
balcani
tossico
##sore
sergio
evitando
avenue
divenire
delta
ibri
cortesia
tempesti
tranquillità
##appa
assu
marshall
##uit
##dget
##/100
raffa
tradito
prenotato
picc
sindacati
radiazioni
angela
gustare
##infrastruttura
##ww
suff
##miere
imbara
tessile
libano
andarcene
respirare
costruite
meso
##bini
conclusa
istituita
gari
rinnovato
dizionario
separato
volevamo
wireless
condiviso
tipologie
##'1
guinea
magi
circuiti
##invito
necessita
nazionalità
##ugu
mosse
μ
fanculo
liquidi
etc
ottime
##qual
ridotti
cellulari
ritardi
1/2
##psia
muoviti
conduzione
domestico
calmo
##cken
reati
##sky
confra
##darsi
τ
##än
iphone
irregolari
##soli
linux
spaccia
evita
sussidiarietà
amplia
sissi
limitazione
correlati
ferdinando
ascoltando
corrispondono
bota
##jam
scalo
##stoviglie
eventuale
visse
creativo
religioni
##mella
##fro
rial
preparando
kyle
informati
hotels
##lero
meeting
climatici
riuscendo
becco
polla
vocazione
dirai
baseball
riccardo
##ettura
decisionale
dichiarò
177
##gestione
ie
bancono
placebo
parallelo
##alfa
##teriori
jes
rebecca
occuparsi
nico
##hou
tappeto
grani
margini
##07.
dé
rare
smo
cingh
##vy
pernottamento
bestiame
larry
()
lacrime
##ghero
maggie
soffrire
fisici
kw
##brale
scelti
zampe
lucas
cardio
palazzi
controllati
decidono
inserendo
giudiziaria
trasportare
kin
omosess
stop
americane
elettricità
##getta
incentra
alessand
luminoso
##sette
##scritti
scrivendo
complementare
desiderato
arena
##gb
infort
##entricità
desktop
ingegneri
##aver
vedendo
25,
abbassa
volontario
miche
integrante
speranze
==*
##ccome
chiss
relatrice
##ques
segnatamente
##ör
##mbur
liberato
porzione
frammenti
valentino
cuta
##conto
zitta
docente
lauren
sospetti
leu
abitudini
sdra
##lvania
fanci
iniziando
182
bry
pietà
dovessi
succederà
magica
savoia
barcel
smartphone
figo
simone
biennale
risoluzioni
##indicazione
distinguere
barriera
catherine
osci
torto
sand
facciano
ladro
consu
##/96
4.2
contemporaneo
british
stretti
##ae
indicazione
serpente
sconfiggere
fornendo
lampade
riposare
minerale
investito
##denziali
detenuti
1988,
##2-
sporco
##ès
innal
associate
##teau
daniele
indimenti
##von
cub
##stò
estesa
##centro
citata
##animale
conservati
crip
anth
instant
##/94
disca
demone
##elto
1966
##1998
edo
##metterla
discografica
##coln
##tuoso
convinzione
1975,
jacques
variano
darle
##aviazione
apprendimento
peli
separate
sis
sparire
1945
profeti
disgusto
epo
##bit
correzione
catali
indeboli
##cking
trascor
##etu
vaffanculo
classificata
contabile
chiamarmi
accrescere
profonde
aumenti
smaltimento
fau
matthe
regolamentari
(0
avvio
culla
spegn
diminu
remi
koso
vorra
biodi
##dez
##estri
delicato
matti
esamin
ampi
espressamente
salvataggio
impostare
audiovisi
aumentata
flacon
##equa
[2
89/
##menda
und
soffo
diffondere
ente
darci
consulta
variare
agro
innocenti
1976,
immen
confuso
gallery
biologico
prossime
##bbs
##ghesi
toll
##/4
##dell
eletti
reggio
175
misurare
potenzialmente
fitz
lire
##nold
entrano
spettacolare
##erito
##ccolma
aristo
pensavi
(5)
##vese
##consi
##.:
presento
giocò
##1),
##cum
##gliamo
178
##urope
erbe
lavastoviglie
indispensabili
facesse
informatica
170
massiccio
##llanti
rivolgersi
titolari
##gliati
guarni
libreria
##dall
##essi
adesi
vasi
impulso
##ccioli
impara
trofeo
distanze
monetario
aspettavo
portatile
rifa
gallo
##ete
##monio
##infezione
##entieri
opposto
innamorata
pessimo
verni
pv
limitazioni
studiò
rintraccia
regio
papi
emanu
kei
seguì
accus
association
##sel
ingra
muscolare
sbo
##polis
##fani
##bru
’.
coali
##rad
##riti
aula
dildo
##elico
efficacemente
fabbiso
riducendo
##oliva
ubicazione
controversie
##tó
##impostazione
91/
attrezzatura
cosme
siccome
profili
musical
states
inseriti
##dg
sceneggiatura
pianura
famose
##fic
##email
campana
conosceva
##rera
thi
shar
bm
svolti
avversari
darsi
whis
rugby
##eclittica
ditali
lito
discorsi
cuoio
dovro
ré
viveva
1998.
praticare
assunta
caute
april
sydney
valere
colpiti
limitate
perven
##-16
porteranno
fisio
forniture
risiede
introdotta
salsa
bueno
stupefa
mondi
connesso
assicurazioni
escluso
salvati
fondò
pechino
##eco
piú
attrice
mostrando
preoccupi
maestà
avente
##psi
potessero
verdura
ivan
amen
##alloggio
##operatore
##cion
anzitutto
riservati
finan
farli
puglia
stimato
derek
parto
portarlo
fondatori
##tutti
24.
##ile
chip
consegn
accadere
appunti
##llata
precauzioni
guardati
guadagn
##rough
inventato
grotte
##ila
##libri
##viene
lincoln
qualificazioni
debbono
euratom
##pul
##ral
{\
validi
dark
hand
vicinanza
1943
##yon
peschere
macedonia
fissi
berlin
normativo
##wit
##erre
caroline
manifa
vaccino
galli
##massaggio
carre
2017.
stoccolma
##uss
camping
##rance
##ats
_
isolato
energetiche
castella
inven
terminata
##foto
conseguito
diminuire
aiutarlo
disposta
scoperte
preghiamo
significative
##esie
abby
tha
scari
coincidenza
affo
sentieri
aiutano
aggiusta
##accento
filippine
##atch
inquinamento
universitario
##lov
vigneti
solenne
sentimento
grandu
riferiscono
tarta
videogioco
##veremo
ispira
autorizzata
##andre
ripeto
apportare
intergoverna
bugie
invernale
ebraico
rivolge
governance
eserciti
marittimi
abbandonata
conoscerti
##ttici
infli
telefonino
##hon
run
adde
sgra
inviati
##ispi
angoli
specificamente
backup
parrocchiale
darò
##head
##2),
##shion
allievi
##ün
dimostr
affon
seguaci
assicurato
frode
conoscete
ios
livorno
parker
##eccentricità
riav
balne
cercava
omogene
provvedimento
##lau
vampiri
consigliamo
##fato
procedimenti
##sper
formalmente
instaura
brindisi
diamanti
##/97
##andamento
tipicamente
##senza
reag
##quattro
ritrovato
##carlo
gmt
trovarsi
##kel
abusi
isolamento
1.3.1
##sotto
incentivi
matera
##*"
guarig
traduzioni
appoggia
millennio
##spar
ospitato
individuo
concreta
##ace
##ottica
incar
allenamento
caser
terrestri
frequente
indonesia
›
saldo
alline
wel
83
##deter
##prote
compia
modelle
frequentemente
inviata
##presentata
##chie
lapi
dimmelo
1.6
migrazione
prototipo
##annuncio
funzionano
navata
roccio
consapevoli
##zolo
schmi
##dow
uccidi
perfezione
frontale
##udienza
cruciale
estratti
niko
ristrutturato
suddiviso
jacob
svel
rivolte
siri
vampiro
##chin
##1996
gestore
##tì
(10
vivace
sessioni
##pienti
train
semiasse
aprono
giustamente
palo
dicevo
##rish
##leto
municipio
piro
habitat
##sing
##ensori
rilassarsi
ginna
mazza
fondamento
ossigeno
##fondo
quant
##dent
tornerà
sovranità
redi
golden
kno
venez
##vidi
contenuta
straniero
lasciarmi
##paesi
coperte
delimi
uccise
##cit
margare
tipiche
aggiornate
semifinale
sbir
ritirata
seo
uve
strasburgo
intelligenti
##dello
1965
pisto
aggiornati
continentale
##ssico
##cerca
monaci
proli
violazioni
profughi
trasmette
consolidamento
##gana
maa
direzioni
##uda
##farma
##ror
mb
sciogli
impera
inaccetta
difetti
##rrà
sella
stupen
##5,00
puzza
ostacolo
massaggio
ing
create
saggezza
ridotte
definizioni
##1997
guardo
shock
##/95
crocifi
##soprattutto
cher
1950
ll
##spo
##ellini
cranio
arrestare
dream
artificiali
adeguamento
1964
pastori
percezione
prole
garden
compagna
descritta
curiosità
divertenti
##sm
##vetta
##zzoli
editore
considerano
##prezzo
traguardo
boutique
##fati
##rero
svolse
scrittori
won
negative
##%).
brevetto
introduce
risalgono
serbatoio
##arra
maurizio
##roe
contabili
##esso
clay
berna
accetto
aspettato
urla
##organi
tutelare
subire
decisivo
##gus
operative
genetica
ampliamento
lenz
mortale
##+2
proroga
ratifica
2-
complimenti
tommaso
##affer
minor
innovativi
lesioni
approvare
innovativo
sfuggire
##lò
(32
##feria
risu
##commissione
##"",
rivi
precoce
pt
union
##locale
singa
coma
[1]
paglia
dovevamo
eliminati
##arcivescovo
##flo
hart
bad
bracciale
puliti
ripristinare
cromo
##italiano
assiste
##girl
##allargamento
stime
chilometro
presidenti
comportano
##bello
##pti
motor
##ottocento
schen
##interna
nascosti
rapidi
##eur
helen
jenny
elisabetta
##how
##giato
rein
##bone
consegnare
dovrete
buonasera
trovarla
preziosa
scaricarlo
interrotto
rimedia
divise
crociera
unirsi
tyler
binario
wen
##thi
malapena
pollici
peste
citare
delitto
portiamo
scatole
solitaria
##py
point
penta
marcus
dente
adibiti
datore
caratterizza
permanenti
##milton
cocktail
generatore
etichette
quadrante
afro
##-1,
1963
##zziamo
sepol
miniere
cortese
cantone
odi
hostel
convinta
sperimentazione
##genito
dubito
contraddis
scultore
vario
##dai
click
reden
soffre
##pur
ellen
parlarle
##adempi
sentirmi
##oke
om
inerenti
##isp
11:
confrontare
condotte
##/5
dormito
classificate
scherzi
fido
pitto
binari
##prio
##she
portava
hockey
1986,
nul
menù
1944
distretti
appuntamenti
##cas
mane
sottili
assicuro
frazioni
##nese
pakistan
fottuto
convocato
eta
ampliare
ricoperto
soggiorni
attraversato
terminale
meteoro
ditalini
universo
indiani
(12
##point
##randosi
##identificazione
##fla
##live
first
nastri
##erebbero
constatare
calde
assisti
##dl
biografia
##erli
##rese
aumen
##accogli
addestramento
continuando
scusarmi
fren
miti
violento
esserne
fissata
zuri
coinvolta
desiderate
##gnolo
rinforzi
##estremità
riceverai
mé
##ving
1987,
temporaneo
suddivisione
luis
##spazio
cliccando
avessimo
fida
radice
cogliere
seme
lascialo
dovra
##omonima
limitati
scudo
peggiori
archeologico
##bl
demografica
ln
leonard
##interfaccia
compilazione
##ciate
##vico
jesse
spiriti
3.2
##wald
zoe
socie
minoranze
##svi
frequentato
##noti
god
sinonimo
climatico
digital
##bico
ricevuta
23,
costoso
protesta
##lana
ortaggi
valutato
collaterali
pacifica
sbrigati
##tarsi
##zzone
voca
chitarrista
accettabile
spedito
bolla
leggeri
china
##cherebbe
appen
##ghen
erede
incompati
##patia
riciclaggio
laureato
topi
rango
##arro
itinerari
confon
esclusa
beck
rate
costituiti
avia
domattina
marchese
raggiunta
operato
palace
lettonia
segretariato
cratere
classificato
fune
saga
assassini
##attiva
missili
dama
##emo
lino
##questa
magazine
succhia
champions
lavaggio
stampato
valorizzazione
ui
pear
lineare
rapito
fauna
##dison
rischiare
moltissimo
mago
cilie
webcam
esamina
milanese
##quale
sostenuta
architetti
perseguire
##cure
nas
##invio
esplodere
completi
abbre
diventò
sega
gialla
trattative
simul
regist
cosiddetti
contrastare
carichi
ong
siringa
imballaggio
creano
evol
chiamiamo
##/2003
1985,
##fora
1961
diana
perlo
sigarette
comodità
##aggiornamento
applicati
ducato
osser
esatta
biel
##iezioni
directory
padi
freccia
quotidiani
rispecchia
compassione
html
garantendo
innovazioni
dopoguerra
pneumatici
risultante
kri
##urazione
singapore
indagare
imbarcazioni
##cn
elementare
##/88
piero
##seo
brevetti
cadaveri
##ween
utilizziamo
##eccezione
battaglie
discipline
cartello
protocolli
county
riuscivo
franz
wayne
lavorativa
liberale
riesame
##attesa
##/6
linda
ombra
asiatico
yard
sex
arresta
popolarità
##endum
esalta
menzo
##dopo
##odier
eccellenti
##loso
precisi
cuci
versati
risarcimento
infanti
guy
palma
##orientale
banchi
estivo
vulcani
comporti
indovinare
santità
attribuita
cosmo
segnalare
usufruire
drive
##rismi
##assedio
giustifica
##lista
solu
incontrati
##grazie
##denziale
##tarla
interi
modena
sopravvissuti
dirmelo
incomin
alo
combatte
##entò
volentieri
neutra
carolina
preferirei
potenzialità
interessano
preferisce
##lfi
suggerito
##ctus
lake
periferia
commis
wiki
spazzo
incontr
vietato
##pool
sollevato
nido
sanitarie
approfondire
sperare
imbarazzante
syl
kle
gemelli
##inata
confessione
separatamente
sviluppate
saggi
parteci
cita
marsi
problematiche
credeva
incer
inciso
onesto
starai
##lendo
##range
cesti
gramma
biscotti
+39
ripristino
tram
nizza
##ccò
european
perla
aires
esponenti
##vise
radar
siner
idromassaggio
combustibili
invecchia
destinatario
##fonso
shop
imprig
lussuo
thailandia
walker
##quie
1946
consentendo
garantita
##canestro
fotogra
fair
bande
supremo
buenos
nuoto
esclusione
trio
special
##ggendo
acidi
inutili
luminosa
song
iniziamo
carenza
strane
contenitori
fortunata
insiste
seduti
battute
graduale
precise
##hattan
compor
##scienza
formulare
##station
rettifica
##etteria
spostamento
##rerebbe
fabri
disavan
sentono
##air
##asti
auguri
rigore
montana
invisibile
ragion
andranno
##/2000
1.000
mcca
ricambi
interpretare
fango
γ
divide
targa
duri
evidenti
kosovo
##ratamente
matrice
esposizioni
##minale
galles
immuni
ricambio
violenta
joy
phen
ein
lamp
ripos
##ppare
chiamando
cavalleria
pere
mogli
##istante
organizzate
scoppio
##getto
combattuto
ricordiamo
spazzatura
aggiunti
decisa
##mega
chianti
##far
supporti
frequentare
crollo
spun
onora
inossi
##baldi
arrampi
misterioso
##cusa
0,5
lasciatemi
##-198
assunzione
tensioni
##bata
lyn
vegetale
amichevole
21.
telesco
sofferenze
##/12
##skij
valli
##aming
marx
gusti
gabriel
##borg
##ssette
aaron
ax
##utici
olandesi
alba
##feld
fashion
terminal
##mora
fiamma
cica
##geranno
rara
profitti
romantica
α
norvegese
calcoli
grato
##iata
##viale
profumi
3.1
1992.
dirglielo
incredibilmente
mucchio
eccessivo
smetterla
sottovoce
29,
##tv
eiaculazione
guarigione
cow
##-17
henri
apostolica
allor
##taneo
1962
##stazioni
jun
##ttrici
##raglio
distintivo
cambiata
solidi
##zzatori
balla
sodo
creda
disagio
##ordi
seggio
divennero
##4-
##individu
##enni
corn
ev
viventi
cancello
determinante
frasi
liste
coinvolte
##sita
molo
##rana
acri
pine
inserite
comoda
eseguiti
gale
plaza
cedere
##3-
moon
decimo
commenta
emanuele
soddisfatti
raggiungono
##oo
rimedio
uscendo
incrementare
##llow
side
rimini
turchi
##ssegnazione
cancellato
muscolo
stampare
percentuali
230
razionale
bolzano
##ram
vitali
##attre
tredici
##osta
list
babbo
finitura
sostenitori
esplicitamente
##wich
space
contraddistin
epatica
riuscirono
##ucraina
##iler
anthony
hou
transe
cucinare
statistici
parassi
guadagno
##ev
accoppia
##capo
1500
tunisia
folk
##ciamo
guadagna
sostitui
tr
##brio
semin
tenerlo
squali
pontificio
##gian
specialisti
trasferirsi
chissà
territoriali
degno
dovrò
schiera
schemi
##iv
##ssy
##%),
vena
estiva
stiano
sorgenti
avanzati
sommo
##lamento
russell
£
segnalazione
##servizi
biodiversità
ey
jin
##varsi
dillo
##cinio
##inati
associare
opa
avversario
localizzazione
diesel
chiedevo
equilibrato
##guel
1958
sprin
mandati
guadagnato
passaporto
parallelamente
conclusi
dedicate
sementi
ritirato
comprendente
##andi
##nota
##ceae
turbo
##fuo
##atp
trasformata
marini
delizioso
##dci
##glianze
vocale
pellegrina
suffra
##duci
disar
vuota
sedici
fatturato
puramente
##bba
##grafe
##uccio
##autono
celle
##enica
transazioni
aspira
usciti
esposte
avvelena
30%
preparazioni
terrazzo
minoranza
ring
rinvio
mania
motocicli
ricette
greg
1996.
formulato
episcopale
interiore
confermata
##dosso
##xon
##teche
##arcidiocesi
patti
deline
##asco
masse
nomin
dylan
operatore
ricezione
##lai
miniera
spieg
degra
assunti
trasversa
ostello
sms
cattive
##ruguay
##www
92/
##figu
##ordin
stara
sorprende
##/89
##llman
banconote
##ità
acconten
bentornato
##fetta
1997.
riviera
report
conferisce
cibi
anziano
nascere
##monta
village
bloccare
caratteristico
teatri
lattiero
preoccuparsi
rever
influenzato
contemporanei
saluti
cristiane
margaret
miseria
domestica
sman
sponsori
coalizione
scansione
92-77
ricre
riabili
hamilton
cardiaco
aumentando
tamb
##drich
dibattiti
gps
azzurro
arran
terrore
lore
pedro
gy
bike
trasferiti
prenderla
raggiunti
ham
##aog
##zan
nascondi
assumendo
iraq
marc
escluse
provvedere
televisive
espressioni
##lotto
scol
##imprendi
##metrico
##illuminazione
rilassante
annuo
malata
corde
colture
duplice
somme
unghie
proprieta
difensore
nause
conser
rosario
continuate
joan
intensa
sacca
citati
##luto
##verlo
designato
raddoppia
scegliendo
##/87
trovarmi
ou
caldi
##lines
##lom
vincola
consentirà
dubai
tesori
sira
rh
1995.
zurigo
kid
secondario
cucchia
##quadro
freno
filati
parrocchie
##ones
sete
yacht
fulmine
##ssivo
trasmissioni
##pelago
funzionario
lucio
manhattan
venezuela
##nano
##visori
insufficiente
1.5
dirà
##amicizia
##pto
poterlo
rappresentati
march
anticipato
##bite
vetta
rilasciata
##interrogazione
##bici
salerno
volati
##geva
##incidenza
##9,00
##veicoli
cercò
tuning
##lova
premere
intervista
scorri
domicilio
svuo
mattoni
spaventata
dipendono
jess
assorbimento
farf
rimanendo
chur
7/8
spendere
pallacanestro
##.07.
amm
##cimento
predece
concentrarsi
##nen
disparità
##ters
complesse
##colato
settima
ingiusti
manga
rifiutare
gno
1940
##hal
deterio
##strazione
immorta
rivoluzionario
deficit
concesse
##gera
##pass
bottiglie
##world
ines
bovine
alleanza
##tics
##erino
elimin
##lantico
1994.
molla
bastone
mentali
morbido
##dicesima
py
radiof
derivato
britanniche
2018,
turistici
produttiva
fico
straniere
jeremy
4.1
##entino
philip
progress
##poi
##text
sincroni
riconquis
inchio
progettati
##fili
attivare
jonathan
shu
lesbiche
bieloru
##danno
contrabb
sottovalu
##uoli
visiva
hon
raffinato
fatemi
##lamo
risalire
privilegio
##/98
scozzese
##ensivo
##1995
azo
troveranno
sperma
soggetta
woo
obbligatori
carol
scacchi
frequenze
##noi
##ccate
##ceca
##altri
pregiudizio
pianeti
##dista
pedia
lind
pilastri
##zionalizzazione
scarpa
ammonta
svegliati
##play
complete
apostolico
imperatore
todd
fabbisogno
uefa
ble
giuste
##ionamento
salvaguarda
raffreddamento
##prire
##belle
precisare
##tts
##secondo
supervisione
bottega
specchi
proiettili
risultavano
guanti
##fle
intimi
episode
anteriori
accademico
efficienti
##democra
sparo
##incro
salutare
istante
manchester
assegnata
workshop
accada
rimasero
##zego
ever
santiago
toro
dava
formaggi
circondario
##5.000
pablo
##marono
valley
ritenere
qualificati
messina
intraprese
stanziamento
pellegrini
alun
trasformati
##2).
##pot
##gorit
##segre
flessibili
arredamento
caricare
corriere
generato
view
square
duramente
amava
apparso
approvati
arcivescovo
spot
tecnologici
##vič
galla
troverà
mine
pubblicamente
machine
220
1.2.
##cheranno
vib
promuove
poesie
infrastruttura
siero
##ets
dimenticata
viss
annullare
carra
blues
censura
##setti
panni
profezia
pos
schengen
2019.
lasciarlo
telefonica
vedrà
presbi
feni
lente
##chet
comunicati
sissignore
1984,
##dise
aldo
gestita
cambiano
bando
versante
##cse
cour
##inno
(30
sottoposta
morali
razzismo
pose
tastiera
rho
##vic
##master
perquis
mandi
cancelliere
molly
incastra
vibratore
##osservazione
trek
##inaria
peni
##zin
lupi
milita
racing
confortevoli
energetici
vigenti
28,
##avanza
##0000
prussia
##"*
cipo
casse
malvagio
wrestling
rettangolare
reperti
##ois
biologici
sparito
concordato
3-
copena
costruttori
novo
refrig
fiere
saltato
demoli
eccoti
direttivo
dottorato
televisivi
aggiungendo
conseguimento
##giani
esegu
augusto
funzionali
minu
rodi
trian
##nee
##meria
monitorare
##ulsi
stoccaggio
##lisi
monitor
devozione
progressiva
presero
composte
##retti
pieve
unire
sensore
##rimere
streghe
rotte
anderson
lido
##dimens
continuazione
rivale
parlate
13:
acquisita
bridge
##lph
crudele
strisce
annua
##inflazione
##esor
##/2004
##inden
dance
coperti
podio
portuale
##see
##ruro
##valli
η
##ammissione
hei
daro
perù
affli
fisicamente
stabilì
globalizzazione
##iran
batteri
composizioni
grammi
interrogazioni
bugiardo
##xter
cariche
omonimo
whe
copenaghen
oscuro
##foni
chf
estremo
rating
prix
##allarme
laguna
suggerimento
##luire
locomo
videogiochi
registrate
iron
walt
patente
manuali
##mat
ottone
referendum
implicazioni
grida
brigata
nutre
deluso
##atteggiamento
servirà
munizioni
##cademy
farete
##oscuri
marcel
ideo
discendenti
##ronta
shang
scavi
wy
reparti
##rici
##alterna
prescrizione
atomica
spostato
vicenza
arriverà
fero
accompagnati
##amor
alison
##zzle
truffa
ath
##ternità
nodi
musiche
##incendio
verdure
×
bartolo
biblico
indubbia
fari
controversia
##rose
##dith
##ficanti
prenderà
##berto
##parla
suore
##assegnazione
canton
##dola
act
scora
testimoniare
ancona
##rioso
requisito
@
adoper
mouse
infetta
aggiuntive
richiamare
##ridge
ristabili
decorato
##lusso
pavia
andré
capsula
##itazione
cantieri
doppi
bobina
##zegovina
##/01
##home
haro
##adeguata
abitabile
viceversa
##tuosa
ispettore
insul
potenze
prosperità
##als
##6%
##uoi
aggiudi
seguiti
mestiere
scienziato
giustificare
costantinopoli
editrice
babil
risurrezione
quartier
consorzio
##fiato
delegati
##allu
affidabili
preavviso
azzurra
ritirare
##osservatorio
consum
francesca
nina
vivendo
3000
inedi
infezione
alessandria
##ttoni
##attivi
trasmessi
sebastian
##yu
beat
tetra
descritti
lamb
zan
ispirata
ferrara
prosciu
preside
##stricht
finn
##interessato
campiona
cartu
totalità
inossidabile
conca
fides
mista
osservatori
distributori
4)
##main
site
denun
##deli
parru
cazzate
institute
##nic
legittimo
alloggiare
tool
genitore
autentico
temere
27,
##ettero
ricevimento
alpino
##insedia
7:
troppa
norda
diabete
scinti
##etano
causata
fluo
cautela
christopher
apprezzare
portarla
hop
ioni
scara
entusiasmo
custode
osa
dialo
fasce
hannah
termica
versato
gianni
riesca
convertire
gironi
impressionante
##thers
barcelona
ribal
rigen
urbane
causati
verificarsi
##3).
analogo
sapessi
derivano
architetto
##oney
facevi
##esito
##carburi
mettiti
##rola
governative
mettermi
##malia
hack
##bei
oceani
prefettura
##.12.200
##ucci
emp
campa
pacco
cominciano
originarie
panchina
negoziare
##town
##vai
contrassegnate
venduta
circostanza
##ic
rimarrà
curioso
pictures
story
##alizzati
lavorativi
alfabe
ole
##vu
vito
contabilità
genu
##montare
peggior
giuliano
partnership
combustione
bovini
1939
full
estrazione
93/
\
##eliti
splendide
##famiglia
##sito
##potente
contraria
cede
grego
##cchetto
nettamente
owen
##gnola
cercavo
timi
hardware
delegazioni
##06.
damon
longo
minacciato
##sitter
gatt
wer
concede
necro
affermando
##affare
host
battendo
brevemente
2020
##ffin
bonnie
##esclusione
premier
##ortò
produttivi
possedere
##ssari
##cipato
debian
prestato
##sistema
##affitto
malvagi
##tterà
##pg
rovine
##tras
##-14
parecchie
termico
##pha
rotonda
##elice
##proce
costruttore
preoccupati
30,
alleva
vettore
##pedini
nazista
donazione
fiero
cito
appieno
linguistica
giudiziario
asciugamani
affidabilità
##ziata
court
barocco
osservata
treviso
guerriero
maastricht
carenze
pate
##dibili
##cts
farmacie
branco
soppresso
meraviglia
superficiale
lane
nes
tombe
pondera
cominciarono
eccezioni
##città
divenuta
preferite
potenziare
incarichi
situate
arredi
portarti
pai
volle
stampe
cambiando
##delle
##marmi
percorrere
tolleranza
qualificato
postu
ritratti
riscatto
ricominciare
benedetti
cronaca
finanziato
##mag
razze
carboni
ritenuta
conservata
sottostante
##asilo
maya
##/2005
grey
distinti
##-2,
circostanti
##kk
rinnovamento
share
difese
egizia
filmato
pittori
container
##dinali
##onazione
##rabile
1993.
##tté
##mpton
gera
parentesi
vane
dolcezza
riconciliazione
giaco
nancy
doppie
erotiche
rivelare
guidati
riduzioni
sostenendo
alfonso
esposta
flaconcino
compressione
equivalenti
##minari
congo
sedile
adolescente
vomito
stivali
legalmente
##ción
dana
africani
bruciare
elettroniche
##fie
##erne
##ciatori
firmata
pistole
##gorje
1956
assomiglia
##omc
##dalena
intracomuni
creò
menzione
sene
holm
fotografo
impegnarsi
pau
esportatore
rientro
##elettricità
autorizzazioni
emozion
feedback
sher
oliva
friuli
bordi
passeggiate
columbia
##trasp
installazioni
shin
rolex
##fredo
ferroviarie
##pocalisse
metterti
suddetto
station
##tizzazione
##prise
vedeva
dottori
contribuendo
1959
bacche
##automobile
tribun
protetti
preservare
chiedete
straniera
(14
(6)
sapra
incendi
1914
paper
combin
##autenti
acceso
##abbi
terroristi
dorsale
ricevute
spro
ligure
##ensis
##latori
accuratamente
elia
cinematografico
##bad
descritte
attivita
nominale
##appello
size
esib
chloe
1957
##misfero
fortunati
bce
##lling
splendo
##/91
traghetti
amata
permise
evacu
##gonale
##riche
abbondante
false
sereni
deroghe
routi
jr
presentò
riparo
brooklyn
##/85
global
invali
quanta
proiezione
comunisti
ordinò
motivazioni
romeo
tossicità
universitari
insediamenti
miguel
servitori
morris
distribuiti
facessi
##wart
thor
dedicò
##vić
##viano
colonie
araba
migliorato
surf
circoscrizione
chieda
bisogn
babilonia
sottoscri
cadde
foglia
facolta
eredita
esito
portiere
destinatari
indubbiamente
bambola
##diff
antin
improba
psicologia
privilegi
colombo
continue
cogni
pecca
##minali
##onostante
annualmente
caratterizzati
igna
##omi
##ualità
petti
vs
1941
##onali
notturna
disegnato
carti
attuato
connet
sacrifici
equo
vorrai
constatato
##.2000
##giata
ango
miste
##scano
##nuovo
boli
vincoli
##musica
sopravvissuto
guidate
##phia
correggere
1983,
lavoriamo
ellio
kenne
panno
##pez
1942
##là
##endolo
miles
dogana
##pari
intesi
salomone
autostra
comportare
spingere
pressoché
penali
319
##intesa
magnetico
compie
auspica
profondi
mando
cappo
ö
nl
##rant
apposta
##'80
sgu
##eresti
conoscerla
incantevole
##ogni
convinti
fascista
##ideale
inserzionisti
monetari
eng
provarci
stupidi
patro
ludo
##incante
##scopi
##zionando
italian
##/2001
convenuto
1947
autoveicoli
##cau
##commer
1948
contratta
sedute
##dipen
nora
rinun
aggiornata
jamie
analoghi
##sali
##tesi
fortunatamente
fantasmi
gori
violino
##undi
alcol
malware
strategici
finanziati
oxford
scarsi
scontato
decentra
rivestite
trentino
provvisoria
bili
##scetti
ipote
aggan
propaganda
concepito
congiuntamente
##pposti
illimi
svariati
flore
pontefice
dorme
technology
adamo
not
assol
proviamo
26,
soffri
##terre
ice
interviste
##fazione
derivante
##hei
julian
ucciderti
##dimeno
bruciato
clientela
##cz
dispiaci
facciamolo
sentirti
1990.
##valente
conserv
sinteti
simpatico
##fila
now
##ezione
avviata
##pis
##scuo
5.1
esenzione
giuramento
miracoli
ripeter
tiri
kai
##wig
seattle
oz
lode
pasticc
sostituisce
macchie
ritrovati
##/11
onestamente
stupendo
boom
retribuzione
##375
sga
cameriera
anticor
ritirarsi
potenziamento
muoverti
##verde
curri
fidi
sommi
ideato
riunisce
austriaca
raffigurante
fotocamera
alfred
quattordici
persua
sapesse
scommessa
##lascia
##argenti
immagin
automobilistica
##unge
ward
manuel
tartaru
##dus
illustrativo
##avy
aa
##medie
allievo
abe
polso
1920
camper
cauzione
##allevamento
prometti
castro
diamine
liam
fabbricante
plo
##sauri
dosso
africana
velivolo
sblo
medaglie
inaugurata
155
douglas
##hamster
sposo
eredità
orna
price
##4),
##nett
##sciallo
##yl
intervis
##mouth
##ettive
canoni
xhamster
dirigente
##-02
nodo
clero
indicatore
personalizzati
eleganza
##picco
frankie
fly
mantova
collocato
bambine
distinte
##amministra
olimpiade
sentenze
caricamento
##cioè
mans
##ingrosso
apparizione
##occidentale
pessima
sperimentare
divario
ignora
115
attraversando
specificato
sierra
righe
richiamato
valvola
##api
calcistica
##melle
avverse
divertiti
mercurio
feci
aqui
infortuni
(«
rulli
trasformazioni
trovavano
rovinare
lieti
(...)
sofferto
ottica
broadway
eseguite
chies
regni
emesso
##culum
finanza
caduti
viaggiando
dannato
##eng
colorazione
##3),
elio
handica
campania
nr
rovere
##american
opportuna
farmacista
##mund
galera
prince
'9
1974,
pò
##/86
indennità
vernice
cave
##ttate
interfaccia
gregorio
lex
##avessi
##perti
innes
biotecno
149
aqua
libia
##autonomia
hoc
impostazione
##ert
gemella
dilettanti
credenti
busta
sally
comportato
satellitari
semplificare
piastrelle
##mg
##ole
raymond
vigente
incubo
fagio
chiederle
tecnologiche
aggiunte
sacramento
##zel
matthew
economicamente
##ssò
##uf
##rossi
##trica
percep
interazione
isaia
oltrepa
vettori
model
valide
costiere
ricostruire
cn
dee
##sylvania
rimanga
##dc
immobile
##appun
##savia
maxi
1972,
averci
cartelli
inviate
schiavo
coraggioso
petra
nelson
sofistica
##marlo
continuiamo
##colata
office
influenz
rivestita
leggendo
##/2018
piega
avvisa
rifiutò
vertici
##4%
affilia
sudameri
monumentale
falla
professioni
irlandesi
##terne
idioti
##colore
cronica
##cloro
1991.
ripetutamente
##odio
summer
spezia
##gt
dennis
vincente
##wil
tic
campus
145
##etito
##avvento
punk
ottenute
tatto
installata
##abbigliamento
##nove
tonalità
indiffer
##accettazione
occupo
morso
##tecnico
adorabile
cominciamo
##lit
stesura
450
jackie
##tainment
artigianale
##plan
finto
preliminari
##.»
invio
utilità
ribellione
soggiornare
squad
quinn
vulnerabili
##valle
orgoglioso
##hs
proget
##animazione
##uva
##sim
solli
favorito
fantastici
ammissibili
ricrea
impu
##zino
cannone
granada
lasciarti
geografiche
lecce
mcc
font
justin
vigilia
portante
family
goccia
maglietta
pallavolo
ritrovare
inquinanti
municipale
sati
coso
usiamo
estremità
venere
invitare
##chus
##gence
khan
riesa
automati
##falo
coppe
guerrieri
compongono
antibio
apartments
bmw
distributore
intui
jenni
predefini
suonato
tratte
arts
cofinanzia
##pos
##esse
privi
##dem
umidità
diamante
##-03
angio
mosaico
capra
mammi
congressi
stipendio
purezza
archeologici
##evano
pluriennale
riempire
durerà
sollevare
influenzare
##belli
olimpico
ethan
jules
lotte
uncinetto
##aa
clara
##pubblica
assegni
##aids
kyo
montene
##mmie
##oceania
gratitudine
race
calli
studios
artistiche
##neso
frattura
migliorando
verbo
##tualità
perfetti
nuda
telefilm
prover
##3%
saul
##allenatore
##lani
cic
previo
facce
puzzle
mais
##insediamento
defunto
presenterà
##geri
tass
sonori
##ggs
sciocche
##ggine
sophie
airport
##inito
facenti
navali
colloqui
##larmi
##artico
risana
statistico
grappa
uniformi
15:
esperimento
##197
progressivo
##ziario
speso
astu
##sela
dichiarata
##én
##aboli
versare
conoscevo
farmaceutica
##reau
colpite
##programma
samuel
esclusivi
moltiplica
##erica
previdenza
claudia
coordinare
messia
dinamico
gonza
winter
##look
##light
sconfitte
##':
##mentati
172
caspita
##ride
shoah
unitamente
intelligenza
##okie
zuccheri
##ginale
graham
sassonia
elettromagne
##viii
restituire
buttato
##americani
(20
galileo
partecipando
spu
##elevata
lastre
ecologica
pertinente
analogamente
##inc
##sud
esordito
resoconto
toby
blin
but
##ternita
eugen
revoca
##jon
##bourne
academy
ottieni
citazione
rafa
teneva
##ded
promet
liqu
valvole
rimaste
abbandona
socioecono
nausea
omonima
maro
##esenzione
realizzò
ska
segnalato
repressione
##chezza
legname
##osso
##ambu
nominati
incidenza
brig
assente
abitu
redatto
eccesso
cruz
##emisfero
sacre
tg
got
predo
##idio
infortunio
candidatura
fissate
logistica
splendore
positivamente
##culare
cellula
##emissione
autonomi
missionari
8:
minibar
spiegazioni
eretta
1955
peco
dolori
128
disi
##esio
sd
apertamente
umberto
franchigia
##immo
promette
##enici
acquistati
passeggero
segmento
approfondita
whit
fori
jennifer
obbligato
##uld
stabilizzazione
venir
##ssamento
tablet
156
kurt
ravenna
##turismi
arca
feaog
mancare
restituzioni
ebreo
add
potassio
##garsi
divo
presumi
riprova
##mons
istrui
beati
nicole
##_1
sottocu
40%
fermate
##jamin
restando
giganti
preferisci
##dit
##.06.
jour
kor
##testa
##onic
##alcol
filiale
kennedy
nie
pulite
apparteneva
ubriaca
hallo
individuato
propongono
orme
mutu
metterci
##appuntamento
women
raccol
coniglio
infanzia
personalizzato
pullman
##adeguamento
prioritari
elencate
impli
##estrazione
informale
iscrizioni
scolastica
inaccettabile
dirigere
maturità
risulti
forestale
##tex
##ciplina
##nar
proporzione
sottoscritto
solleva
visualizzazioni
ramb
aderire
vitamina
conosciute
lor
brav
##cciata
armadi
godetevi
liscia
##bano
##sini
dru
##goria
moro
rimediare
frodi
intru
agriturismi
municipalità
community
##host
betty
##stic
meritano
rapimento
yan
enzo
vetri
pilastro
riusciremo
##oltremare
riuscirà
julie
##ggiò
bush
##animo
##diano
games
123
accompagnare
##naro
riscontro
dic
filato
casuale
##produ
arredate
5%
##diate
attira
terminò
dicessi
abbonamento
appartenenza
dela
introdotte
raccomandata
##cosio
adatte
lascero
combattimenti
rispettato
hein
tatuaggi
ortofrutticoli
##giana
polies
##1993
creta
fabio
gelati
occupare
##inga
avanzare
##vul
sere
serial
complice
illustrato
muti
##esordio
##intensità
motel
piscine
passiamo
1970,
1973,
bicchi
##kt
allorché
magno
shan
divenendo
pago
esordisce
hp
manchi
iniettabile
gus
clausole
giornaliera
169
padroni
analoghe
difficilmente
##franco
02.
muoiono
ambasciatore
##antonio
parlarmi
galassia
protette
flag
impazzire
metodologia
dedicarsi
tower
rallegra
varsavia
##leans
##randa
dividere
terribili
##iare
##merò
dipartimenti
pig
afghanistan
cinquecento
##tropi
uva
##stop
orti
bimbo
indimenticabile
##ambasciata
collection
##8%
aure
becca
interazioni
##uscolo
sapevano
parlamenti
puntare
##sai
concili
conferito
animazione
eccet
susse
trovarti
competere
pod
stammi
osservate
pronunciato
spegni
cerebrale
##chetti
iugoslavia
##aii
##laren
perle
insediamento
robo
##funzione
##scolare
terremo
perdonare
tenebre
enuncia
essermi
wish
sfumature
securi
tasche
1-
vicolo
edoardo
152
watson
suddetti
nipo
176
vil
intel
donald
cambiò
##cons
shawn
16:
search
cyber
bast
head
##cesimo
imbro
chirurgo
maledetta
pepe
pareggio
remoto
##1992
##celo
accord
##andone
##ingen
104
tags
getti
ugo
##incremento
illegali
kur
venerdi
##bino
navar
##ggianti
notturno
##ipo
bj
leoni
pallo
libretto
elaborata
metabolismo
##lease
tassazione
battaglione
ritirò
ingen
predica
1).
nascondendo
18:
rivenditori
garibaldi
settecento
brutte
lavare
sceno
comodi
gita
##ambulanza
##accel
montato
##visu
utilizzatori
**
svin
parag
106
capodanno
shaw
rimpro
fingere
specificare
riservatezza
gp
if
benjamin
soddisfano
atlanti
germani
arezzo
pronte
beneficenza
##orecchio
##temp
1936
carnevale
cancellati
##fonia
crosta
contrattuali
classiche
##ispe
rimpa
conden
vincitrice
##:00.
intercetta
femmin
scontra
##accoglienza
multipla
##bolli
onori
candela
medju
##integra
aderenti
inserimento
calce
fati
vision
esisteva
kre
ferri
ammette
riparazioni
vano
borghese
ristre
develo
ordinaria
metabo
corta
biologia
14:
pratici
appassionato
azionisti
ι
zioni
um
109
bah
accede
##gl
mason
cyp
imprigion
antenati
rison
dale
centinaio
##vanti
visioni
sovvenzione
##cinto
perimetro
saba
##abolizione
risenti
ingaggiato
fermarlo
##filo
nativi
oo
ospitalità
programmato
negare
##asy
ottimizzare
##comm
direbbe
ae
segretaria
##onario
duecento
causando
##05.
tosta
lomé
terminali
architettonico
sindacato
responsabilita
112
diga
minia
##mand
task
muratura
25.
finiture
trattate
teorica
gabriele
135
manica
[3
giura
realizzando
rocco
##clip
trava
riveste
informativo
riguardi
##stie
vocali
riassunto
##elleria
sostene
##santa
palestinesi
rasa
scarso
lucido
recarsi
portavoce
ministeriale
alleato
luminosità
sparti
caf
rilasciare
guadagni
metterlo
##argli
emergenti
friedrich
##cet
chiedermi
##assalto
##ip
##400
##soci
lima
##leggio
##orizzon
renault
tenete
casey
sistemato
constata
accettata
oste
##adattamento
stagionale
##dose
accolta
##haw
wien
potevamo
##infermiera
##iraq
primato
##individ
apparve
battito
##vice
kr
##iosa
###"
poly
liz
manifesto
approfondito
generico
arrivarono
##dou
consiglieri
##==*
riconosc
##over
##viglia
basano
sindacali
storicamente
##nò
##7%
##vari
1938
mou
##unesco
delicata
fossa
inevitabilmente
4-
crow
##€.
eo
nun
possiedono
##vich
17:
sostituiti
ristorazione
##fiore
ingegnere
sospendere
##gire
arroton
clemente
playstation
sorti
giuli
pasquale
##siamo
##kon
chap
##ké
##ssate
farmacia
##800
joey
165
vola
elettori
fiato
##1991
disputata
##pas
##pho
##ground
lubri
ragazzini
sire
sbarazz
misti
##punto
lunedi
orso
raggiunger
yoga
gamb
cairo
passivo
sn
detenzione
cotto
##ficatore
sciopero
##!".
##ssiva
##treno
1930
finì
jenna
fabbriche
##voci
sollievo
llo
attenu
sostenibili
##ferenza
convertito
perfo
##bran
liga
ritornò
cuscin
pagati
tronco
itinerario
body
combinazioni
tizi
what
locan
geniale
rispondono
calzature
indurre
heart
sposi
calze
odierna
routine
verrai
attrezzato
editoriale
##zzerà
aprite
ortodossa
preziose
##quote
lock
1953
vincolante
##nse
comunita
disattiva
indirettamente
##gner
1954
tena
##fere
rituale
discreto
medjugorje
paes
recuperato
occupazionale
idrocarburi
##ras
166
intellettuali
##ix
spring
tornano
armadio
##zoni
##ellone
scenari
modesto
interistitu
##tturi
pick
cessione
consolidare
á
##ttati
aggiungono
##ettivi
baltico
pav
##patico
##03.
israeliti
traduttore
salvaguardare
##amma
amburgo
parlargli
[2]
scoprirlo
belgi
chiacchiere
orleans
polacca
trattasi
organico
ubbi
carrie
scarto
beneficiario
sostenute
##night
##isten
sporca
appoggiare
finiscono
improbabile
##web
rail
arruo
andiamocene
contrariamente
##fac
##legge
avuta
##lem
scoprono
##ssier
russe
coltura
spino
teddy
interpreti
degustazione
##kia
affasc
negoziazione
##2%
##eb
pensaci
mantenne
alunni
ignorare
jor
plane
orecchini
##trone
regolabile
pietroburgo
(*)
marty
ε
##mic
figurati
sum
interpretata
tranquilli
astro
cerimon
##ciclopedia
scro
cacciatore
##nome
sembrerebbe
##.-
##meteo
trinità
edimburgo
gestiti
arredato
shanghai
##istemi
curve
trattata
##ury
ende
stanley
svegliato
riscuo
brasiliano
4.5
franklin
schiavitù
engine
imballaggi
riabilitazione
##ggiamo
fiorentino
scaricato
##ssante
##adempimento
##rke
##lenza
sovietico
elementari
##istre
15%
subs
str
1952
##onne
sconosciuta
dorso
indoor
recin
esegue
122
mozza
accredi
##inclusione
antropo
##alternativa
riconosciute
tropicale
dumping
##fron
##danti
giurato
isabella
##regola
travis
ordinario
warren
recuper
ricorrenti
##»)
musso
periodicamente
##ccione
patriarca
##rick
##langelo
vulcano
filosofo
successe
##lav
luciano
panama
doveri
risalto
corporeo
##loro
##euratom
endoven
pubblicitari
arancione
##mper
letteraria
beccato
massime
100.000
transitorio
##rez
lang
andarono
risanamento
##8).
##centesca
",
nascono
##meti
##veland
serbo
carmen
approcci
farmacocine
(0,
##lingue
calmi
(—
nau
fuso
intimo
sudan
##onna
##addestra
##ammiraglio
imprenditoriale
nuvole
##azzardo
fuochi
salvador
anfi
mettete
portarmi
occidente
appropriate
##/06
jeans
dissero
##islam
##occidente
presumibilmente
gastro
perfezionamento
##yan
##onimi
##zionismo
suscetti
importati
satur
offesa
sorgere
unitario
memorie
##uguaglianza
curata
allah
piana
sony
nobil
mitchell
##isione
##eredità
stero
congiunto
squis
##centesco
ossession
inquadra
influenze
sinto
teniamo
##bun
##metterlo
opposta
harold
cicla
impedito
».
##west
##antichi
clinico
liguria
##idra
schiuma
contenti
mati
roth
visivo
##01,
salario
##rossa
discendente
liberali
selezionate
##ddle
giudicato
orizzontali
##.15
ane
impermea
limitro
bernardo
##burn
riunito
##04.
fecon
##scopio
alicia
##disco
dila
##arcipelago
162
ther
presc
sforza
osservati
##rita
laici
173
##chini
##cerebbe
raw
sogna
##pediniere
intrapreso
vivevano
maschili
feudo
votazioni
incaricata
srl
alcuno
##americano
trattino
kal
tw
##tarne
mauro
cartina
muovetevi
mandata
suddivisa
##corre
1949
acconsenti
##/2002
tattica
##individuo
##form
##etichettatura
assegno
riflessioni
riley
102
arresti
edition
abbo
##andina
##sinki
palm
##ordinamento
##derli
tentò
accoglienti
appropriata
##ice
lieta
5.2
manufatti
migliorata
trasformando
##latura
finirà
logico
vederci
##ervanza
standardi
randy
bovina
satelliti
lance
##cf
udi
cannes
gettato
rando
conventi
dispensa
infusione
##uel
aprì
quinte
##quin
solitudine
##1).
##you
supermercato
palestinese
##news
##fit
##iii
persistente
decisero
mei
socialisti
(35
hunter
pronun
teatrali
agito
sbarco
fora
blake
canne
25%
##kok
##ssau
lungi
immediate
fluido
sm
genesi
piacer
prenderemo
##leta
alieni
strette
taglie
nondimeno
stark
##vorio
ripie
bureau
##char
esta
##inante
##tters
##disponi
finisci
immaginato
assassinato
teori
fissaggio
introdotti
##ental
colto
##voglio
market
estrarre
creativa
##jah
##colm
##erlock
spaziali
infantile
aba
contano
entertainment
intervalli
orchi
pirati
precede
riusciva
##edilizia
atomi
fernando
##modernamento
dur
avvicinarsi
##sl
infarto
particolar
mitraglia
##spor
disk
mere
illustrazione
##iser
##entare
massacro
pennsylvania
pieghe
vorranno
jugoslavia
##dani
dormendo
how
motto
siffa
cardiaca
esprimer
trini
urina
madame
##urce
potrò
pochino
##.]
gbp
greche
9:
##zzine
##integrità
sme
7-
##signor
trionfo
rimettere
bancari
www
fall
pianto
estremi
##sticamente
usarlo
##morragia
collins
propriet
astensioni
romane
##entazione
##intervallo
detenuto
##.02.
118
leale
premiato
pellegrinaggio
nigeria
ampliato
##cele
posizionato
##nov
##chten
mafia
soprav
anagrafe
##say
##witz
attribuire
##sone
madaga
##ngendo
eccessiva
problematica
espone
portami
michi
veniamo
intermedio
liquidazione
istanbul
gabinetto
inviò
convenzionale
ligne
bastardi
##rat
compensare
##lì
##/02
macina
nou
##gnon
meditazione
child
costanti
##1990
nebu
##roy
riposa
yama
toronto
additivi
busto
capirlo
usciamo
convince
lasciala
riuscite
next
sicure
##orbi
voluta
paragona
##lise
irregolare
inevitabile
conobbe
attualità
(40
consistenza
##001
delinqu
##ladel
1.2.1
rilasciati
alzare
assassina
##abbandono
preceduto
alternativo
rivenditore
freni
oscura
marcello
leadership
##maria
theo
potro
dallas
soppre
##uovo
conforto
##info
##numero
harrison
stupefacenti
750
verrebbe
letterario
competitivo
inquietante
##assistente
compimento
esportatori
olo
coop
four
prees
assorb
consegue
gt
cameron
verticali
intervallo
##spetto
carbo
accettazione
##servizio
94/
sagra
pomodori
diciassette
acquisizione
##cetto
##cki
1951
doro
danu
confusa
giurisdi
urlare
brillanti
dovessero
fermamente
tregua
settoriali
##08.
attivato
principato
like
##insegnante
##fel
abbassare
congedo
giacché
colorati
ottengono
sfruttando
bbc
reddi
divulgazione
ausi
giudei
##inventa
sembro
primarie
##30.
##fox
felix
travel
##iolo
talenti
cliniche
obi
##1%
imparti
testata
##atlantico
##thor
eccomi
arriviamo
100,
regala
appresso
##duce
paren
fidarti
autorizzare
##chy
sbrig
##imbo
affitti
##upe
francoforte
ladri
morfo
spezzato
montenegro
gliene
cocaina
casc
ospitante
ata
117
cleveland
ecos
here
partori
possedeva
##graph
form
nuclei
theatre
##kee
##dema
##altà
dician
aumentano
omologazione
##immedia
##verne
volley
valigia
imbarazzo
riconoscimenti
##kini
martha
##industri
andasse
cartoni
eliminata
dimostrata
porcella
rinnovata
abitazione
fertili
moore
fianchi
incontrò
continuava
ricogni
compaiono
adiacente
decesso
fanciul
anto
tornera
sviluppando
##rondisse
##ladelphia
scenderà
pizzi
07.
neutro
specialista
(25
##lletto
neder
##gatorio
forestali
##affermazione
agru
dioces
accettano
sottoporre
##presso
##gp
##oko
peper
formando
respingere
inqui
segnò
##ña
macroecono
103
108
ceneri
organici
severa
ricavato
77/
gotico
121
esporre
obbligazioni
rabb
client
permetti
biblici
tria
disabilità
##ás
240
bontà
provate
halloween
ginnastica
##glu
meridionali
affermazioni
##msung
72/
##dezza
helsinki
parano
palestina
adattarsi
coinvolge
surre
signoria
integrate
conducente
##vì
predicazione
soprannome
##produzione
%.
vip
rinf
curriculum
rimborsa
##inaugu
alt
fish
##pora
tematica
##arta
##ping
leslie
miliardo
elaborati
parleremo
corno
confezioni
##pane
zip
simbole
interattiva
divergenze
cugina
maison
ghiacciaio
##zzazioni
proietta
##segretario
),
trasparenti
produttive
dicevano
concessioni
caratterizzate
ramma
meraviglie
##oriente
murphy
nazisti
immuno
1989.
salito
##caro
specifi
incrociare
kent
comodamente
##anch
infinito
##?".
holmes
1968,
basandosi
##sibili
board
great
mido
##coslova
1918
##cologia
cilindro
##-25
1971,
##fante
martello
##fali
derby
moltipli
calciatore
poltrona
##deno
##site
urgenza
ova
lenzuola
millimetri
dispre
fast
volontariato
monopo
vibrazioni
connor
affidamento
donazioni
sottospecie
spostamenti
collettivi
cacciatori
traditore
mozzafiato
cuscino
sherlock
escursione
proporzioni
conservate
##aran
aliquote
##caso
instagram
competitiva
5000
neil
alternativi
distorsioni
##tiene
visitatore
85,
##lausi
partì
pendo
classifiche
deso
staro
tou
living
product
##culturale
eti
calcare
turche
dozzina
distacco
disavanzo
libra
restanti
debuttato
trasmesse
vladi
urgenti
##vibile
malcolm
suddetta
##disciplina
cardinali
limone
##eltoe
gonfia
contessa
##metil
novi
innamora
uli
sottoposte
sovrapp
cameltoe
françois
sigaretta
sviluppò
intrattenimento
ez
1937
crava
rivelò
1929
secchi
##utata
intima
ripensa
meccaniche
africano
accademia
astrona
dichiaro
sondaggio
abilita
châ
potu
sedili
ell
##odierna
ricavi
##fur
entusiasta
distribuita
invitata
attribuisce
##viata
povere
confina
trovarono
##sano
prendero
madagascar
longitudine
##tetto
stupenda
rintracciare
##700
diplomi
alterazioni
imperiali
##locu
168
consentano
pescherecci
severo
##ispettore
giovanna
ciu
crai
convenzionali
##ziare
bolo
pedago
padiglione
compromettere
gonna
hell
fabbricato
##ispirazione
osservando
michelangelo
ρ
etio
kie
banane
126
##face
sion
crescendo
##eiro
gesta
recò
antivi
##reale
piange
##abitudine
riferirsi
##gid
uf
cune
quarte
divertendo
prestigioso
##pido
fotovolta
aeropor
ribadito
simulazione
5.000
##desh
chance
credibilità
pseud
##cipazione
bartolomeo
magazzini
artt
equipaggio
107
padron
lascerò
succeda
indossando
adams
zuppa
puttane
buca
processione
revo
##stadt
rain
chann
impressione
##lant
rappresentate
##tosani
##tese
osi
degna
cloruro
paesagg
violenti
insin
avreste
chang
vasche
geneticamente
insor
starà
##uman
fess
triangolo
notori
houston
andavano
##rah
taranto
##ordini
virtu
particolarità
noioso
ricevuti
riconversione
apparecchio
celesti
vendute
pellicole
plas
##pota
imbotti
##caseari
##sezione
##zzarlo
cartelle
scivo
##hor
formi
dedicare
meccanici
consecutive
cooperativa
##pone
missionario
spiegh
lotteria
concorren
turca
operanti
##raga
diciotto
sbagliate
##wall
blair
##600
radun
irach
lotti
persecuzione
bloccata
##terei
nash
cecoslova
ricevendo
##cellu
legislativi
presentava
##abitato
promossa
##visualizza
##imposizione
dopotutto
##ferma
ansia
##mecc
zar
siviglia
##zzetti
formali
31,
convali
sospesa
adattare
darvi
decisiva
stuart
intendeva
heavy
compiuta
microfono
§
largamente
impiegata
complicata
auda
assumono
vedrete
##iniezione
ordinati
formalità
##vona
outlet
##apparecchio
##verci
hold
conference
nervosa
comunali
about
elenchi
radicali
##plicazione
##tom
menzionati
##erio
preparata
chemio
distribuire
##arena
##pment
ft
lasciarla
frederi
##intra
catech
restiamo
##bica
rapper
##:4
##dic
maddalena
parafarma
multiple
sanremo
##alco
pali
abuso
atro
conduttore
svariate
poliestere
prescritto
##mei
reattore
vivamente
##zata
civico
tifosi
tornerò
neonato
##addestramento
kru
ricopre
##doli
walla
aca
katie
tigre
rafael
rivali
inserisce
##kespe
##interazione
scaricando
luisa
tarda
##etroit
##saurus
togliti
##rondissement
cacao
mitologia
reich
philadelphia
##!!!
corin
normandia
sconfitti
amministratori
##liga
##essenza
connessioni
##giati
ling
##americana
##argentina
exp
apartment
tung
salmo
straordinari
roll
debuttò
tariffario
##mmina
impro
##cese
##gatore
conchi
esigenza
sapevamo
consue
hawaii
##wai
##ador
immaga
identico
eurostat
##endone
mh
isaac
raso
infinite
##eccell
ausili
asiatici
manifestato
trin
intensificare
##etch
slalom
##aliquota
generoso
##nez
riferisco
seppur
lion
##continua
sintetiche
##stron
##ssario
apollo
conformarsi
mutamenti
tana
maesto
paola
manifestarsi
draft
leggende
##16)
lud
synch
stagno
indotto
mortali
restrizione
##appalto
nobiltà
nuotare
settimanali
partecipazioni
##jack
servira
equilibrata
##incirca
##terete
##cou
ripete
bellissimi
capolavoro
onni
longob
##iang
idrogeno
messicano
artigiani
rob
##amate
philli
transeurope
(7)
161
##tossi
barb
estetica
divertirsi
logan
accorto
emilio
concordo
abbandono
room
hope
##2000
##steria
renderlo
annunciare
dead
ratti
segnando
##riosa
##cchetti
tamp
pharma
donatori
##lente
monroe
progettare
costellazione
pensavamo
manoscritto
garcia
retrib
ispezioni
pregiudiziale
diedero
imposti
##disci
).
subisce
sperando
obiezioni
mediterranei
reverendo
##cì
gö
clarke
renda
negato
rilancio
pallone
##orizzonte
##kha
monza
installati
##lian
carrozzeria
##60.
rigida
distrutti
".
litigare
gastronomia
normalizzazione
triple
cappuccio
##attrezzatura
scendi
##ancora
diane
##invecchia
embri
disposte
beneficiano
##menia
trapani
inoltra
convegni
sr
significhi
insistere
death
biblica
perduta
1935
cubo
navy
##entaglio
scimmia
158
idri
gl
(11
163
##undation
vecchiaia
imbe
tweet
batterista
parafarmacie
tuta
altitudine
lanciata
philippe
condivisa
commercianti
##00/80
anoma
morbida
sposarsi
etnica
muso
novella
nominare
##cp
superamento
##ecco
sembrato
raffinati
##interruzione
illustrazioni
capacita
drammatica
##phe
##luppo
innovativa
conciliazione
accettò
sensibilmente
##ways
acciai
sostanziali
bale
effettivi
resistenti
frontali
solvente
##profe
converter
##bizione
travesti
comics
grass
quercia
geloso
mister
tropicali
127
disperato
dislo
mandor
origin
ucciderla
corna
molecole
saprà
veterinari
vagina
serpenti
torneremo
discrimina
marmi
chiamò
umbria
risalenti
rinascimento
resterà
formulate
##11)
##mito
lutto
asti
booth
provenza
rinunciato
schmidt
inibitori
controllando
##door
##dania
##assassin
escono
rovescia
##és
##dov
##doto
##-21
accettati
##idiota
emana
favorisce
pollame
rinascimentale
##zzarono
commettere
estivi
daranno
sensazioni
legittimità
wu
##applica
##imma
##iper
##kara
preferenza
identificati
declina
tribunali
2.0
craw
scommesse
incaricati
##rock
hambur
aprendo
##verato
stalin
conosca
apprezzamento
proteste
turner
zen
velivoli
amor
greggio
manico
sparta
##ryn
3,5
chel
piazzo
fabbricati
fiorentina
1928
##darono
sweet
muoviamo
gentilezza
##visor
##conten
##taggio
magna
90%
caleb
sviluppatori
accennato
tac
assimi
dam
direttrice
incastrato
remun
oscuri
sponda
##02.
pancia
##lynn
##ctions
ober
nobel
##ispezione
posizionamento
xxii
montre
descrizioni
offro
renderà
terminare
cammin
1912
##ggen
affermò
compenso
eccessivamente
##international
##apparato
esordio
##effettiva
##evan
lcd
ormoni
ralph
remix
gettare
##llio
164
martini
seminter
##modo
crocifisso
faraone
##scello
accompagnamento
##terni
sri
##cional
##inaugurazione
maglie
detroit
disputò
##thern
siracusa
scommettere
kaza
moti
bagna
stupro
avvertito
scoprì
cantato
scopare
##acquistare
##6-
##rer
174
fattispecie
specializzate
fermarsi
baci
labi
suini
preventiva
interpretazioni
20.000
metallica
trapianto
prostituta
hiv
security
direttori
irregolarità
##zzetto
frati
videoclip
##bli
rilan
crescono
disciplinare
##perà
##log
playo
alcool
godono
pazzesco
asa
gomme
##così
pati
ciononostante
##bank
caricato
consulenti
"...
aprirlo
infermiera
2.3
resina
negro
martiri
vasti
propulso
##­199
alpha
vadano
costosi
1924
blister
austriaci
ribadisce
riconoscono
spru
patati
##eccellenza
take
##torica
##isy
##basso
estonia
shakespe
sorren
training
ricercato
eson
##oth
##stol
errone
riflesso
##acqui
grin
##éra
firmò
figliuoli
supportare
##/05
##semp
##kai
1915
wells
scioglimento
157
graff
comparti
sorprese
##unga
##ascensore
##onente
esclude
gate
##ses
##dettaglio
eccitante
perdonami
cambridge
cortesemente
grafici
fesr
allevamento
##ush
##.1.1
dubi
##erabile
gioiello
giordano
benvenuta
dinamiche
amate
serate
ansio
infran
cloro
locanda
##mberg
##ratori
adottano
bes
ostaggio
subacque
ras
spento
babysitter
##club
simpson
ispezione
empi
##aldo
##teci
hur
scelse
%,
##ttando
candida
research
assicurarmi
keith
conferire
##auti
milo
atmosferico
contribuirà
##ase
cliccare
desta
scappata
nervi
stufa
sostenuti
##meremo
##enix
marsiglia
whisky
rivelano
compilare
ecologico
foundation
neal
malin
spare
cacciato
pé
patter
159
say
##tionale
bord
arbitra
lawrence
selvaggia
notificato
##gee
acuta
116
sinodo
adopera
information
##fine
151
scetti
piazze
##mello
redditività
fotografico
rex
##classi
poterti
interreg
opportune
##alizzare
cantanti
##derle
##descri
romagna
consecutivi
sab
relatori
atlantico
5)
##meta
##zzie
foste
anglo
tornero
corrotto
riflessi
##kis
##impronta
creative
parig
infiltra
citt
diresse
termale
disgustoso
(24
risonanza
comprensibile
consegne
denominazioni
##lao
senior
assegnare
tristezza
filmati
##nier
##storia
collocata
inaspetta
maesta
presentarsi
costituite
misteriosa
interrotta
claude
modern
jar
politicamente
##zania
finendo
##ttini
soul
##lloni
##steno
letta
giovano
stampo
detiene
##alc
verificano
obsole
anarchi
maniche
gradevole
abramo
educativo
sottofondo
cordiale
sfere
ricchezze
ø
1917
arm
##porre
hugo
##compati
fitosani
##9%
esaurito
##audio
##caristi
professionalità
make
cantine
ferme
chiamarlo
applicando
##fluo
autista
annunciò
##enzi
cai
preparativi
palcosc
conservatorio
moz
costruendo
bloccati
esaminati
dario
ostaggi
ricordando
strutturato
dritta
occasion
spal
immigrazione
fantasy
massaggi
##amoci
##ambigua
borgogna
tesa
##ottavo
eccipienti
##thia
melissa
sopracci
144
accolti
##drey
telefonate
tuber
maschere
dami
scarse
tumori
airlines
argi
selvaggio
##fus
â
##alizzato
##caristia
discrezione
sfio
caris
apparizioni
dossier
informatico
bikini
algorit
##gma
mozione
pompi
##curezza
dopodi
riscossione
##urora
abitativa
##bay
saudita
##assassinio
etichettatura
##lingua
##cursione
medievali
multilaterali
canarie
giornalieri
##lance
patrimon
garantiti
##editore
dettagliato
robusto
umanitario
recepimento
esilio
barney
energy
campeggi
dh
sceso
incapace
##cetti
manch
##cock
bocc
parler
indizi
sovietici
##:5
270
##propi
sospen
pulizie
contrattuale
##invecchiamento
assomi
matrimoniali
##6).
##video
fitti
mensa
##try
##dalla
progredire
sabo
sotterraneo
celebrato
stronzi
informatici
ditemi
scolastici
##gara
coreo
oppone
stampata
materno
legittima
##diana
spostati
gir
insolito
cittadine
penne
##quer
bombardamento
##cciola
##vian
audit
final
kyoto
misce
grigia
sperimentali
oma
##deaux
sentirlo
commissari
1933
rendo
superano
zolfo
##islanda
##tenne
bowl
gere
cresta
onesta
proiezioni
##dda
##inando
ciclismo
##ambasciatore
maresciallo
austin
vieta
azoto
distrugge
seminterrato
trascorsi
universitaria
dragon
##orlo
vidi
##sizioni
studiando
avvertimento
warner
tentando
conquistò
##ee
kali
marta
##francia
emerso
toscano
##ric
nba
##giovan
rodri
coltelli
154
ergono
campbell
user
pallotto
##pacità
ruth
vegetari
##dora
fui
1988.
avevate
##gamenti
##fobia
##onere
sessi
##mediter
misteri
desiderare
steel
prepararsi
liver
contraente
nordameri
##inventario
campionamento
edili
pow
vod
mancante
presentando
147
atlanta
marinai
sacchetto
legislatura
##entrando
rotelle
bach
##zzy
1927
gratta
poggio
##5-
bibliografia
provviste
08.
infasti
##.13
durò
palio
preis
2.000
collocazione
manipolazione
cresc
##alpi
dominazione
1985.
velocita
verificati
##-2019
visuale
condividono
equitazione
##fone
##icona
agon
ribelle
indizio
##livello
##torpediniere
colin
##umidità
oratori
compatto
##bat
##chille
manifatturi
##polvere
guarire
condannati
noleggiare
rilevamento
##kie
geometria
##cake
##gicamente
deposizione
spirale
cappelle
##offi
affe
##italiana
trovero
membrana
egu
riferire
##mentate
soffrono
piacevoli
##podi
morirà
occupando
superando
autonoleggio
sostituto
parroco
badare
bellissime
confraternita
##avversario
borghi
pseudo
magnitudine
richiedenti
sequestra
rilevazione
danneggiare
hiro
##segna
escursion
lucer
eretto
glucosio
asiatiche
modificate
##aia
##cristi
diplomatico
rettore
scopata
liturgia
permessi
conigli
indicando
dille
129
atteso
##disambigua
##estrema
autovet
giocano
accadendo
stagionali
40,
esplica
trekking
##ubi
##unte
mantello
accredita
pipistre
playoff
##altitudine
##zini
alfredo
esercitato
iris
type
implici
colpevoli
alimentato
##-04
##mmin
##sorio
vergini
battezzati
radiazione
lit
diagramma
ammissione
vente
##ffie
##entrò
retto
panino
##tribuzioni
eze
versamento
graffi
significare
umanità
nominata
consultato
vorrebbero
rimanente
##burgh
tappo
celebrazioni
##.03.
##pala
gentil
suddette
##0.00
noce
respinta
clin
##zoo
##efta
medioe
propose
sorse
track
altare
##boo
##rapp
yun
portoghesi
impazzito
##isen
....
superstiti
elicottero
##gard
bucare
##guono
coefficiente
collaboratore
210
log
progid
bielorussia
rod
##zation
mutuo
portico
secondarie
catturati
##ratore
2.5
parametro
pervenire
ponendo
carca
aiutatemi
debitamente
doti
fumetto
##pino
succu
1980.
mercena
arrangia
wishlist
##guez
##crate
yang
distan
swiss
zinco
renato
fidarmi
intema
##som
mrs
rivederti
consideriamo
##tronica
varese
##ark
##xe
alpin
neonati
##antichità
udito
pugi
153
##alfabe
impiegate
predecessore
toma
guardano
ragno
sognato
seguirono
gaetano
114
bird
attuate
mangimi
vanessa
drammatico
adulta
proteina
diagnostica
integralmente
nm
##scal
##break
alca
##pata
##trui
mart
vintage
rally
chiacchierata
mortalità
##sharing
prolungato
emozionante
##tcher
##dh
##toso
320
repub
style
mongo
pugni
##annuncia
##etz
##yama
##ôtel
##deremo
player
##insa
##race
facciate
cameriere
combattendo
grandio
disgra
##oter
bee
##llate
cambo
solita
incantesimo
##amministratore
attesta
wwe
##zzoni
mediocre
##steni
rimbal
##,..
chissa
contrasse
cosmetici
cominciando
vestita
rimanenti
##peg
abile
##indettaglio
piastra
organica
guidi
acquirenti
##affida
caratterizzano
outlook
##abitazione
concept
##dian
##link
##nesota
contesti
provvede
cosicché
prevalenza
contattarci
short
decina
fc
4.3
giovedi
lloyd
trecento
visualizzato
##kir
colorato
condusse
1969,
gibbs
fratel
proporzionale
##lock
##gabile
##avresti
50,
vigna
##estremo
##cessione
agrarie
fragile
durevole
##tenente
pern
specificità
continueranno
vicario
scandina
disperazione
xeno
orbita
sottoma
##tem
dyna
public
##universita
ambizioso
##zerbai
bevanda
##statistiche
diverte
atletica
##unes
buffo
asser
feu
agraria
evidenziare
pattuglia
sago
##etts
scambiare
assisi
##attere
botta
eccetera
discriminazioni
##gliera
##wing
coup
##lde
centesimi
1934
sciocco
valgono
studioso
##colla
berg
madison
idrico
##indennità
##')
167
hobby
scudi
cataloghi
133
dara
rafforz
ambientato
modesta
misero
johan
scimmie
prenditi
##cite
levati
nebbia
palmer
##ssionale
accendere
impiegare
sita
cappucc
didattica
acquisi
contraddi
##pens
##game
occasionalmente
##nelle
hul
lacune
liberarsi
linguistiche
coltivare
##jk
pire
vaste
sovrani
##meranno
giustificazione
noah
##ziente
riteneva
interviene
ahi
prospetto
##pic
iri
cinta
spegnere
##linois
albania
giovine
condensa
potessimo
bada
presupposto
sentiti
attribui
κ
bingo
durare
##efficace
##sv
##-06
estro
occupò
feriali
##tronde
harvard
louise
##larità
pvc
kansas
collabor
##ccini
schermi
sentiva
bayer
guidando
##quel
frui
kö
##margina
##liti
##disti
##ering
segnare
##dona
interferi
diar
cervo
occupi
proper
oak
##stello
volpe
##/03
1986.
unanime
confessare
##craft
batman
assorti
repubblicano
vitamine
##gennaio
michelle
controparti
##gala
action
squalo
target
rassicu
sommità
daw
##/2006
##tenario
adeguare
biografie
##/09
##cat
audrey
##dride
groen
mutande
interruzione
##dee
israelia
solitario
trovando
cooperative
ame
turn
scoperti
spiritualità
χ
buddh
hills
sparatoria
111
pattina
ludovico
precisato
molecolare
##bale
138
##dance
calice
dorato
barbi
pixel
samsung
proprietaria
##artigia
suites
scompare
andamento
pea
tentazione
##cidi
agu
major
scavare
##metriche
prenderò
approvate
straordinarie
##sov
macella
trascura
##ficia
peggy
##politica
deliziosa
aggredito
promozionale
esagerato
nature
christine
disegnare
inferno
cappotto
##chu
protra
castiglia
##rent
##copia
1987.
tessera
veronica
##cic
segmenti
vincolanti
##lutta
inglo
buck
zaino
miranda
paraca
partecipante
##fy
113
potersi
arrivate
lievi
manoscritti
##rite
affrontando
##amante
region
sistematica
##arbi
##chis
anor
##free
rene
##astrono
##bec
##fale
##space
limpi
##devoli
mantenuta
##mour
lodi
nevi
inviti
gross
dimostrò
mammiferi
##cui
50.000
##nd
##flu
dm
cosiddette
##omo
trombo
##porti
kel
sid
serviti
cronologico
retribuzioni
cassi
kenny
science
concentrata
novita
##teatro
##conosci
conteneva
aeronautica
amiamo
docenti
ristretto
spostarsi
sorvegli
bailey
##ça
sudo
cola
mulino
agiscono
arrivera
dopodiché
venissero
mazzo
cute
riquali
coordinatore
vedute
protestante
##garlo
imponente
tenerla
focus
##emittente
wit
process
moltissimi
roland
60%
96/
secche
patrono
##gang
##lles
##person
easy
scoprite
##ossigeno
winston
elettorali
somiglianza
##nino
fascismo
concordanze
presentazioni
70%
##1989
quick
murray
##tc
acustico
autorizzate
##/2015
##tarci
traduce
proventi
consistere
agostino
magnetica
nè
##vido
lassù
proposi
##equazione
massimale
serge
postali
disturb
ernesto
nasa
##.14
ippo
rumori
guardiamo
cessazione
##of
##erando
collaborazioni
perry
##istenze
anonimo
seicento
accertare
contadino
rivendica
##rpe
lé
kirk
decima
bagaglio
trovarci
shane
ragionevoli
magic
vescovile
##turing
dipingere
swe
canyon
culina
##appropria
affermazione
lealtà
sabbio
ricic
##/04
##/07
stewart
start
##gga
milf
risolve
##sex
moderata
luminose
proibito
##onori
##tré
"(
##.2001
frumento
1200
##finali
furbo
catastrofe
manufac
concentrare
dili
##codice
approfittare
##glicemia
coloniale
emble
##oscurità
obiezione
rifornimento
kayak
rompi
platino
cavoli
torres
accadrà
##orum
arnold
svizzeri
##gher
impiega
pedon
##note
elli
##here
##berry
##ink
reni
##ccordo
balli
scafo
commemora
delusione
modernizzazione
insoddis
baker
capre
##tsch
scattare
cooperare
rinnovare
stage
antibiotici
fatelo
abitano
tanzania
##fli
deua
sensu
orientata
##artiglieria
definiscono
##kos
affitta
##altronde
colorado
prefetto
rasse
bizantino
sconosciuti
conquistando
##onga
concomitanza
pam
mussolini
##water
##dinamica
##mura
provocando
##sani
marin
148
danubio
hip
watch
saloni
giungla
intrinse
##cherò
gestori
##igi
##sfato
tragitto
##liato
gravita
sudafri
##-2.
##sec
##volto
##globina
services
fidanzati
##ziose
call
##hill
bull
spagnole
09.
spade
vedevo
potendo
combatter
##informativa
redenzione
##andro
bare
candele
signifi
prestigiosa
casco
insistito
##mol
gregge
girolamo
pak
vicinato
##modi
für
wis
valute
##zilla
##cester
guate
templi
opporsi
interlocu
##lc
##lot
fagioli
##smus
001
enzimi
pregio
sheldon
violenze
contaminazione
attrazione
##resca
intratext
valorizzare
sottosegretario
1913
kenya
ashley
necessitano
maltra
(1,
distinto
affermano
##city
danesi
oscilla
##ammontare
bb
##cua
cristianità
svantaggiate
##umb
chiudendo
mata
wilhel
giornaliero
##allaggio
botanico
coincide
##isolamento
171
##hot
nona
restate
##etudine
vaniglia
##blue
##hoven
##volon
##metrici
scolpi
acquatici
retrocessione
scemo
##rebbero
adrian
tributo
forfetta
nascoste
spicca
poeti
giordania
##page
strapp
abbandonati
##uxe
##garo
##/2017
analizzato
##lou
##pressi
firefox
godersi
marion
##mettersi
cavità
bagnato
giacobbe
fascicoli
riconoscendo
paige
limited
decorata
##sher
intento
orlando
lombardo
esige
1925
rida
ripor
bucarest
strategiche
131
1926
reed
amber
dovunque
rappresenti
aeromobili
obbligatorie
vas
nidi
testate
codecisione
bug
##cinqu
1.6.
anticorpi
marittime
torte
sinago
wade
stein
sigillo
##dana
prolif
sviluppano
##getti
quie
montare
tariffarie
##bow
##room
alibi
gemma
##rerie
lione
incisi
##rannatura
##lineamento
biblioteche
fantascienza
##attu
bordeaux
chiedeva
johannes
ricostruita
rosen
##lez
1900
##appari
coagu
registrano
shakespeare
omega
avvicinare
prerie
2°
rivestimenti
139
ricky
maturazione
grata
fucili
##vela
vacca
rafforzata
bundes
rigorosamente
nordo
snack
kun
##'1,
piemontese
janet
charme
serale
##.08.
124
human
padrona
dalma
suddivisi
##anesi
##cenze
cremona
ingenti
tappeti
##artigianato
##laska
##aerona
solarium
interromp
maternità
rappresentava
craig
equivale
maurice
incredibili
individuati
qa
##esecu
juven
aiutarli
##dimensionale
##artan
animato
formule
restrin
##wel
onesti
mirano
diarrea
##-2-
crash
loggia
thompson
20:
lydia
avverrà
superco
violato
auspicabile
annullato
touchdown
orbi
coperchio
##benz
cron
coordinato
volontariamente
averli
entriamo
##.22
ambu
##altera
##bles
seggi
rompe
commessi
tavolino
##.20.
##elling
alpina
duemila
loira
ricorsi
rivolgere
0,1
taci
islamica
eliminando
expo
##cod
##cut
##omolo
rugg
##/81
##ceno
citate
##ensive
flynn
trade
globo
volks
passerà
pagata
compatta
editori
##chessa
getto
##lavori
automobilistico
addetto
fidanzamento
justi
##madonna
pseudonimo
##abilità
raffigura
patatine
dimenticate
subordinata
bolivia
pomodoro
intendere
presuppone
##ehi
matta
##ez
impieghi
attribuiti
specu
##db
76/
##entati
forna
aghi
(2),
ceco
##shirt
impulsi
governato
secondari
enig
istinto
restaurato
umanitari
tranquillamente
glenn
midollo
singolarmente
132
sconvolto
peculiarità
720
tang
##kre
##fiamma
sparse
subentra
streaming
intermedi
poichè
registi
termino
(22
limo
portuali
spettacolari
##eley
##nze
cash
sione
pazzia
stimolo
estranei
##aspi
136
altrui
croato
lp
autentica
proprietã
##uge
ŕ
cannabis
egoista
##ries
tir
accadde
tungsteno
dè
rf
##tarli
estese
1932
##campo
daremo
residuo
24/7
rinascita
pesantemente
avvolto
transeuropee
incidere
contes
terrazze
horror
risveglio
bombardamenti
brutti
multilaterale
##tanzaro
##avesse
mancava
troverò
##fasc
prosie
agrumi
quadrata
rafforzato
risolu
stacca
pianificato
organizzando
::
umore
phoenix
parallele
ecclesiastica
coniugi
rapidità
db
reco
massiccia
##uco
riguardava
1931
patrio
sapone
grosseto
manifesti
irro
rivelata
mediazione
precipitazioni
sv
capitan
##ου
##iamoci
buttare
##chtenstein
plastiche
##_2
##colosi
cucciolo
arriveranno
##blan
##ettare
##aggiu
tocchi
buddha
tariffari
dimi
successa
trevi
favorevolmente
patologia
##wy
rigide
##occ
##giudica
iniziate
##steranno
##marla
queens
inne
##misumi
rubata
ostilità
artistici
indiretta
newton
riavere
minnesota
attaccata
haiti
impor
##vismo
molle
tata
##gero
megan
sieda
silla
artigianato
valentine
##cir
tagliata
ipocri
##beria
australiano
##lda
chin
conversazioni
rendersi
stellare
metallico
drew
tina
scegliete
gentiluomo
##.6
adriatico
+49
deru
videro
contribuì
##cell
ricorre
fregato
atteggiamenti
##agn
triennale
serviranno
##egi
(8)
lame
proseguendo
##gc
schien
##fol
##cey
##vestono
compila
##-09
##oca
##300
ince
##itinera
nominò
traman
silu
stipulato
1921
metallici
##guard
earl
prosieguo
giocattolo
sfre
indicativo
##elec
palme
recitazione
##lizzatore
são
basilea
##operabilità
2-1
feti
socia
serbatoi
parlò
corrette
palcoscenico
##reggio
accentua
##1999,
guscio
magnesio
spontanea
plug
critto
##epidemia
considerarsi
bruna
grido
ghiando
##.00.
rapita
##meccani
19:
bombardi
inge
##ttenimento
fertilità
liverpool
affrontano
fondare
patriar
##eds
decidi
perdi
sedersi
sfavore
artigianali
ucra
##compresi
field
masters
svoltasi
##entalmente
cerimonie
monopolio
##ou
cordia
fabrizio
transnazionale
uv
casini
cambiate
##wagen
datemi
creazioni
manifestare
1010
continenti
sollevamento
cart
assogg
buddis
##/2016
psichi
pillola
mangiando
linfo
##ssine
##teriormente
##sko
sormon
silvia
proseguito
cime
cé
##annata
arrabbiare
##ön
periferiche
volanti
consacrata
dos
##onibile
imputa
transazione
accorge
intendiamo
caratteristici
##drata
mangio
scrittrice
pearl
tromba
vergogno
smettetela
##individuazione
4.4
##lettera
coprono
confermano
proponiamo
tem
individua
yi
##signore
concorsi
periodico
meredith
dimostrando
unì
gerarchia
atp
##ssee
trae
profilazione
stupra
##sibilità
piacenza
pretesto
fogna
obama
wallace
wellness
rivestito
sad
##ziati
schel
##ccanti
prive
basale
traslo
spieghi
##fir
##vada
sty
abbattere
complemento
visconti
##orri
##drico
##etica
12:00
alzato
promosse
##oso
##ottava
stronzata
##-29
confessa
denunciato
propriamente
##mpita
assistenti
##bali
##sauro
##società
muovendo
##cenne
glas
vota
etica
adriano
incentrato
braccialetto
##gow
amelia
duello
multimediale
antagon
memoriale
##onora
mentalità
##xo
##appen
magis
##urb
rs
##ausi
strappa
transitorie
scudetto
##seconda
cinture
professori
continuarono
emergere
riscontrato
##))
pato
##mac
regu
stampante
comincio
xbox
dannata
contrasti
##ufficiale
ping
colti
suggeriscono
##inn
intesti
giovinezza
##black
recapi
screen
biologiche
##abito
##eletto
funzionante
progressione
##chez
year
##chusetts
##metra
1922
##erite
ador
follow
##dinese
falco
marvel
semifinali
proteggerti
census
effettuano
ferroviari
##rice
conno
indenni
##sz
arbo
afflu
##apo
sit
laurel
quotidianamente
##band
sedu
attiene
pistoia
cravatta
chiamarti
##ath
otte
legione
##meli
mandò
disciplin
labiri
attenzioni
armonizzare
omosessuali
personalizzata
##.05.
##aldi
##dson
tossici
inviando
esplosivi
distribuite
1984.
##ricerca
nostal
aperture
ripartire
estensioni
ventre
##ggini
##serie
drake
rubinetto
toile
poggia
risponda
paghi
wendy
christ
##eternità
acquisite
trascorse
asf
ricercare
sistematico
giustificato
##.25
146
idoneo
##32/
scatto
sacchi
finisca
prelievi
scomparire
3.5
##condi
##larsi
capitato
##spedia
staremo
xxx
##.04.
immersa
porsche
bellezze
canonico
superior
##odo
1910
##illes
bunga
liberati
brasiliana
organizzatori
dexter
illustri
prudente
##deon
catture
veneziano
osso
novara
##osservanza
##ordinazione
##life
vinile
##omologazione
##kka
bobine
ribella
accordati
imminente
proponendo
improvvisa
##cica
##micro
picchiato
##verse
interconne
pappa
##factory
1923
martina
080
suscita
##estin
##andrea
chirurgico
##++
ricostruito
##verly
##zionari
sconfisse
crebbe
identica
regalato
impugna
riunire
streamate
##19,
cascata
##genesi
ciamb
##candosi
portatori
##varo
kam
ausilia
ds
leop
eugenio
avvisato
frequentò
sat
noma
sposarmi
invitiamo
##dir
erica
##annulla
##mestrale
##zzamento
usava
##infrazione
congratularmi
regolamentare
ammetterlo
bau
speed
elliot
linguistico
innamorati
albanese
##ttera
mosso
accento
multinazionali
##file
austro
bishop
wikipedia
piã
pirata
mensili
averle
longitu
version
##gnone
daisy
##scolari
crystal
menzogna
polacchi
'80
alec
experi
trasferta
##onese
heather
viri
impegnate
riflettono
##tä
apra
desiderata
trasportato
##ttano
fidare
corsica
recitato
subspedia
banana
settoriale
suina
avverte
saggia
primogenito
idonei
buchi
teorico
svantaggio
congiuntura
##piedi
cortina
inconta
coordinata
guc
sibi
manualmente
137
abbina
280
##buti
##goslava
presidenziali
vitico
abitata
islanda
##uruguay
bangkok
mansioni
risultanti
epide
traghetto
riprodurre
##read
metterla
aspirazione
appoggiato
mck
sgan
arricch
##verla
##ères
##incor
coniuge
ammazzare
##ingi
nicho
trampo
potabile
duke
riunite
coerenti
abbandonò
incentrata
##puoi
##collo
discepolo
fifa
interrompe
trasgre
visitate
chiamarla
##mposizione
demolizione
attaccati
(-
costanza
##cotta
##kra
fatale
##audizione
rumo
squilibri
rodo
bologn
restante
propi
grassa
scherza
volerlo
##née
adorazione
comu
spray
comico
spacca
mollu
scout
allison
carrara
##lera
##teriali
aggressione
bevo
##ami
142
##cciati
##gastrono
marmella
prendilo
esordì
maestra
compromessi
parimenti
coadi
fbi
tornerai
##erici
difende
sopprimere
dicevi
stampati
690
anonima
florence
pina
##bber
teore
37,
pescara
##oms
sultano
proceduto
scomparsi
anteriormente
mischia
##pun
allargamento
##erante
##verare
giovanotto
ninja
martire
ventilazione
##gun
globu
sapremo
carla
riconosco
##giusti
radi
##thal
funi
indie
##prodotto
operaio
lascerà
letale
scuderia
catanzaro
condivido
##aeronautica
##erle
storto
molda
nikola
michigan
##bolo
1911
animata
discute
distinguono
toilette
sciocchezze
zach
ampliata
tenutasi
'7
adottando
universal
emittenti
visitando
21:
schian
creativi
diminuito
lesbica
predicare
tuba
silva
##orra
##.16
informi
valutata
severi
discografico
cou
boys
illegitti
just
tonno
illustrare
spaventoso
immaginazione
deu
##naggio
addebi
nipoti
##imballaggio
jeffer
##liazione
##opportunita
bottone
clinton
bicchieri
##clicca
calle
##iet
insufficienti
have
##doglio
##rod
##siano
mirti
compilazioni
dion
gialli
trattasse
##spie
kane
tartu
fascio
oceano
cassetto
swap
##incantesimo
ammissibile
prero
apportate
assemblee
promuovendo
##quez
cav
##ships
88/
ricop
succhi
spaziose
##sconi
riuscirai
mat
##ciatura
silenzioso
frammento
cinghia
monopoli
perfette
instaurare
adun
docce
##uccello
health
troy
##vance
maca
##terebbero
reattori
scadenze
connettore
vulnerabile
trend
volatili
attestato
infermiere
antio
salti
pecora
##già
nfl
portu
attributi
finanziate
liberty
temporanei
##-22
kha
##turco
diur
aiutata
conservatori
missile
immaginavo
spugna
democratiche
##tors
movente
##fatta
##algeria
verifiche
ricognizione
accordato
governare
raffinata
##anie
##ocse
34,
esaminando
##-40
##eling
lite
appetito
fermarmi
piogge
##bati
##cosi
duncan
arrestati
grilletto
trasversale
##ospite
microbla
##ingegneria
bilaterale
consisteva
rema
honda
endovenosa
genovese
narrazione
##pazione
estive
riceverà
##kémon
1982.
natalie
##ttua
oly
79/
ind
cero
2.4
vuoti
flacone
riporti
##/2013
targhe
janeiro
automobile
##rand
##zá
##apocalisse
##nos
sparita
sciro
##zioneri
carabini
condiziona
##quest
sepoltura
##anas
134
etico
attendono
ginocchia
frecce
##licato
apps
convincente
##gil
carrozza
preferiscono
jung
repor
ingino
rappresen
picchi
emotivo
alcolici
instabile
1408/
trucchi
tragico
##attimento
vendendo
concretamente
somministrata
paste
ispirati
ricostru
guardiano
##venir
deluxe
infelice
2019,
sostituendo
##plus
ricercatore
##acidi
antipa
sharon
veranda
pertinenza
presieduta
##är
##jet
importatori
balti
relais
intervenuti
nocivi
prioritario
psicologico
##cter
##sessuali
cliff
##fly
wai
spam
##teni
##ccolò
##frutta
frame
aderito
campane
parteciparono
pando
handicap
260
algeria
riportano
##mosa
simbolico
dacci
plugin
elezione
##quad
39,
##albania
04.
ribatte
##apice
##scienti
alleviare
katherine
was
buffa
mostrò
materna
danneggiati
deterioramento
lenin
profuma
nuovissimo
avery
drop
tocch
circondano
##voi
##entate
recano
solide
##lomera
abate
evans
svedesi
contagio
juventus
annullamento
##comb
##mula
avvenga
concession
esercitano
grammatica
vigoro
channel
##primo
##andata
sicci
pendici
dominato
fermarti
’,
##entr
amman
##forse
##tterdam
##spital
soddisfatte
(48
##tarti
sussidi
elaborate
##giò
32,
ammetti
##.21
pec
francamente
##hua
##anato
vitro
perple
mettilo
##allenamento
appropriati
##ldi
occas
igiene
girati
rimanda
sottolineando
favola
content
##tland
attuata
vodka
##fari
travi
pescare
caramelle
##6),
tenero
lois
lecca
costringe
monsignor
capitalismo
##lena
fern
title
diplomatica
##hun
two
##fonda
assegnate
vaccinazione
piper
##ettività
idraulico
pupa
sobb
sonoro
nudi
curtis
##igiene
ortofrutticolo
battle
pagani
##ße
##gent
wine
salsi
officina
sl
gite
german
automatici
casalinga
##armadio
rinchiuso
nascondersi
affascinanti
##embo
1.0
deb
iss
cascate
parcheggi
terrorista
armamenti
presieduto
calvin
##razziale
causate
celebrità
incur
piantala
##giun
sports
ottomano
rivolti
esclusive
##/08
##pati
##mpamento
deceduto
holi
##ccabile
difeso
studentessa
3.000
doloroso
abituato
abbondanza
paypal
veterinaria
devia
datato
litigato
##bib
##unicazione
(45
ingressi
##chaft
siciliani
sufficienza
##ceranno
##bwe
spine
rimetti
##010
##regno
##ratevi
naufra
fornirà
sovracca
multimediali
concertazione
mit
common
##.30.
##name
stadium
ricci
##ghes
(28
camo
##chetto
##polare
##tosi
georges
accurata
##noni
dittatura
ecumen
balletto
##espu
raduna
uniscono
monarchia
##provin
adempiere
farfalla
ritrovano
cowboy
##fonte
1916
kry
##invenzione
##equivalente
videocamera
##vica
##vella
oscu
regge
competitivi
masti
winds
indumenti
funzionera
menzionata
concludendo
##ckle
pongono
beato
corridoi
prevedibile
##leggi
##venture
immunitario
corris
##fta
##ellow
incri
verme
##yatt
##juana
ammesse
##60/
##7).
##kit
separare
class
telefonico
bond
datti
vedervi
##etina
coraggiosa
##germi
colmare
rigorosa
aspettava
costruttivo
rilievi
erik
japan
rifini
allucina
combinare
##sola
scaduto
##annullamento
##team
bart
nude
##fasi
pontificia
##acque
ribadire
1.9
##bridge
1983.
scrivo
##varvi
balsa
##ficandosi
guatemala
##cest
giocata
belgrado
##prop
33,
irene
##ío
pompei
fana
ascen
disperata
allontanati
sconvolta
coinqui
geremia
##ils
cresciuti
partenariati
##hili
moha
simpatia
niccolò
assicurando
rivoluzionaria
suggerire
concentri
polmonare
stimata
##controllo
tirre
bristol
litorale
ceramiche
##gold
geografico
##hang
##ausilio
barnes
##gliela
##spagna
##nuova
ricordata
cronologia
governativi
aggiustamento
suppone
quotidiane
143
rev
##sulla
antiqua
cubi
##ronimo
frantu
maturo
permetteva
tracy
sparsi
##sidera
parlavo
uccido
battezzato
funzionerà
terapie
diglielo
##corri
cene
squadri
##1-
orali
##sat
orfano
misurazioni
##rou
canonica
prematura
gilbert
##rett
marea
concet
badia
pente
##comitato
ringraziarti
##-2013
##miglio
##stella
aggiunse
edificata
scanner
meravigliose
##ccola
etru
imo
senna
grayson
catalogna
##bike
canal
marra
stavate
cacciare
1979.
raffaele
periodici
##berna
giurisdizionale
porter
##esperimento
realizzazioni
##hm
##ène
##grad
guardarmi
cenere
capisca
dovettero
##rium
##ferrato
1-2
asta
spunto
appreso
proclama
##fire
edge
userà
lamiera
ritrovata
catechismo
range
acuto
##incrocio
apparsa
##impossibilità
##pace
corrispondere
clip
comportarsi
riaffer
##ppen
lap
tibe
vladimir
selvatici
rallentare
santissima
97/
##mignano
assicurano
zimba
combattenti
metterà
cosciente
difensiva
navigare
aristocra
liscio
kiev
vendono
consistenti
##ciao
skin
animati
'8
skip
umido
avviate
wordpress
orgogliosa
##affa
lunare
sottos
slovacca
superficiali
##incon
##mira
saldatura
##born
##penia
conducono
ambasciatori
considerevoli
##cida
artiglieria
proteggendo
confessato
collocamento
masc
evangel
mandando
liechtenstein
individualmente
[3]
pao
##riate
convention
complicazioni
3.3
cerchia
ritenuti
integratori
proseguimento
rid
acustica
amati
alghero
vincita
secolari
##menza
avvalersi
ostacolare
lounge
ininterro
2-3
assedia
isolata
affiancato
cilindrata
dha
##scena
##erzegovina
##ely
nicolas
anomalie
esplicito
lavorazioni
##dif
hunt
pour
denunce
cervi
freddi
##____
##abu
alma
leghe
shadow
building
credibile
##derne
apostolo
incisioni
versatile
##***
##rom
melan
svago
sparate
##elettronica
allattamento
perlomeno
##999
spreco
deporta
##cidio
tole
nicol
giudiziarie
archiviazione
0,0
ratto
cripta
siciliana
infon
torcia
disordini
sappiate
ct
##kota
arg
scaff
eroina
eleva
distinta
pix
achille
05.
gesso
naomi
persia
##germania
gesuiti
040
degen
umile
degrado
mika
happy
vasso
vele
colpì
jorge
letture
##trite
##revole
boris
ranch
collegano
poema
decapi
avviati
esercitata
lettino
slancio
capezzoli
danneggiata
indebi
presumo
##zerbaigian
ž
severe
entrerà
##5),
netti
moderato
rama
cestino
uovo
campan
esservi
utilizzabile
cao
soia
questionario
verro
source
rustico
mattinata
girando
juliette
##arredamento
##bson
resiste
bassista
architettonica
raf
kari
perenne
clandestina
##usci
sbu
titanio
riquadro
2.1.
cieca
dipendenze
restaurata
interruzioni
palati
cappelli
proporzionalità
##zhou
preme
montal
##eristica
1999/
comunicano
##corso
##ettata
1981.
donare
##reli
mutui
palese
slogan
vincolo
venticinque
proliferazione
presunta
locazione
senzatetto
servì
islamico
sindacale
##cul
##his
##polino
pink
lontane
lingerie
predisposto
amalfi
giunsero
##mans
##post
monasteri
clori
realistico
chase
bestie
compiace
fatevi
##medicina
brunette
piramide
##adole
inediti
occuparmi
selezionata
fse
##.2002
savona
elicotteri
une
percepire
##adu
wright
ammetto
pollice
##park
narco
banner
collaborano
seth
mutua
##mingham
beatrice
ritornato
annunciata
istanze
coast
precur
derivare
##lur
chad
contrada
circoscri
telefonia
decisionali
##notificata
development
141
ossido
ripetuto
cantautore
costituzionali
consegnati
ripara
##uca
contor
quattrocento
hero
hardcore
contraff
##sd
##quello
borghe
rigidi
testare
giubb
somiglia
abbraccio
produttrice
##devano
##liber
rovi
1967,
gliela
adesivo
let
##enile
fantastiche
##umano
sequenze
pigia
finira
fisher
##quia
disapp
comporre
udine
cadenza
discendenza
subli
robinson
riempito
tabellone
nomination
addizionale
σ
sostenitore
costruì
abituale
##itinerario
preti
concomitante
##map
##orrenza
acquistò
aggressivo
mü
analy
ferie
»,
##rolo
tetti
indigeni
nicholas
diventate
ic
##eline
ritrovamento
1.7
ellie
escre
canone
aumentati
mantengono
inasp
tenerti
##erni
jefferson
##inson
pascoli
utilizzi
##gliando
polari
ballerina
##affidabilità
mozart
presunto
antivirus
progettate
sorrento
attentati
foster
piaciuta
sebastiano
##dua
##code
mack
cuoco
##onte
##idrossi
mulder
##assi
funge
spezie
benedi
contee
raggiungibili
disu
swan
polimeri
vik
benedica
reid
morirai
##john
330
convoglio
##tric
##pista
assicurata
35,
infinita
##store
dèi
kol
mick
nubi
##steroidi
liquida
moschea
sbara
epoche
mangiano
##8),
##docu
trattano
appia
##jes
cet
##taine
##dettero
dissua
suv
gero
durezza
##glieri
##reranno
passava
rimossi
crescenti
฀
##cía
##eler
avvengono
consumare
##onari
lanka
rissa
navarra
parlami
rotterdam
ibn
##uccisione
basic
gregor
saldi
council
guasto
calcest
fertile
##meto
beata
sagre
silvio
##diente
bottino
rivisto
50.
entrarono
##aggressione
contraddizione
(27
earth
##cangelo
facilita
##big
aggira
##aero
razzo
##audi
sandra
incl
studiata
consolidata
usufru
##elegante
accurate
kings
festività
##cron
##dun
98/
aliena
strage
cascina
piazzale
wars
superata
apprendere
interrazziale
skype
esserti
##zzera
scura
##sticità
processore
leopol
tributa
toponimo
racchiude
massachusetts
##thing
##trina
birre
tournée
possedimenti
tova
##zana
##/2014
##conte
##figlio
busso
muovono
joel
##sterolo
labirinto
peggiorare
eletta
assoluti
indossava
segnalati
rado
vietare
dispersione
distruggendo
sem
##compa
##stock
compari
##1988
sponde
##mut
dow
groenlandia
fuji
gina
##heimer
cambierà
salvarlo
smetta
coreano
crociata
avanzamento
hacker
##-24
portafogli
restituito
##run
ammorti
diminuisce
tacere
scopriamo
##words
morirono
##mpino
##calità
##pierre
orfani
protestanti
personalizzare
##ctive
##istendo
irrile
##unificazione
erasmus
##miano
suggerisco
##ibile
wonder
perdoni
systems
imprenditore
distillazione
##acquirente
pubblicitario
##gny
prendeva
##camento
esausti
sè
##bero
fiona
summen
##bona
##sino
diete
eccome
guan
vendicarsi
ricu
pianista
potermi
rivalità
rivelarsi
##cv
##llin
##rosio
boats
implo
program
vissuta
accant
pierce
andatevene
≥
anziane
##mpato
cretino
dile
ristrutturata
##shore
edito
schul
##autista
presidenziale
##pit
##teralmente
##ssale
##laggio
ezra
dalmazia
##ideo
format
gelosia
spedi
segrete
##oncino
paleo
pm
soffia
1.8
##eucaristia
dora
siccità
zimbabwe
##jer
annesso
scorrere
##minis
invano
berk
valutati
fs
##vendita
ipersen
journal
tessere
splendidi
acquistata
assegnazione
##ān
biste
veneta
virtuali
contrazione
cespu
controll
altissima
corteccia
camin
##questi
ritrovo
maratona
persecu
«"
##zzaro
regolarità
pianificare
uccidera
##addio
5.3
trasmetti
riuti
provano
hospital
##tour
301
motivato
##moda
portatili
suscitato
dispiaciuto
gocce
hector
volonta
microblading
opportunamente
prepar
arretra
gestite
portali
adattato
commentare
verificata
##hagen
carine
secolare
spettatore
##jin
##ango
##tuno
##umore
prenderanno
icone
avvicinando
rivalu
ramblas
##ascolto
navate
orange
subsfactory
##ego
valigie
sintetico
##altre
##lorer
##love
quinqu
reclamo
metano
ingannare
militante
ghisa
##verebbe
elijah
mickey
determinano
legenda
distrettuale
burke
onorare
##az
estere
sonore
marziali
##avi
svilupparsi
ridis
spiego
iscritta
##proposta
marconi
vaccini
servitore
##gatori
comparto
socialismo
desideriamo
immaginario
##body
trattori
##nesia
kart
insegnò
prigion
acquatico
##age
carini
cominci
riducono
poetica
negri
importato
ordinabile
dispiacerebbe
durato
gentilmente
fluidi
imbeci
concepita
pelliccia
scarichi
##cido
percorre
lungomare
autovetture
gand
pregato
##igno
constan
sareste
adattamenti
operatoria
settentrionali
##emp
wan
##armonia
farmacolo
monolocale
##desti
reputa
offline
impostato
regolatore
comandamenti
##ios
arredata
vuote
secret
##raw
latta
starò
##assetto
##udere
tromb
connessa
accidentalmente
phy
milizia
tartaruga
parlerò
conseguiti
##radio
rimanete
##adorazione
##-23
##aca
miria
mariti
##reremo
firme
##chieste
documentari
##holm
reagito
ʿ
##/20
##ingegnere
didattico
contenimento
cini
consideri
trasformarsi
##fisica
svani
ritrov
smenti
riconduci
##terbo
raccomando
telescopio
rav
piangendo
calcolata
ronnie
onorato
festeggia
schu
##cristo
pinna
firmati
israeliano
radicalmente
prudenza
chen
difensori
scorsi
modesti
##xxx
partners
##tou
sava
combinati
##mondi
##hrer
##vite
total
provider
##ily
pica
lavorate
tracciare
##mad
##ln
spider
inonda
provino
##ug
lev
harper
augusta
cantata
sostenne
designati
soddisfatta
vr
##dies
disin
##orgoglio
raid
##attentato
adeguamenti
##hart
##cheremo
rilutta
meravigliosi
igienici
scheletro
##astro
sbal
##ionaggio
fottuta
levante
volendo
criticato
testimoniano
##orbimento
bandiere
multipli
sottomarino
=====
stabiliscono
lanci
beckett
spiegar
uccideranno
##ssert
condannare
export
genetico
disordine
consolidato
telecomando
##mercati
ridimens
permettersi
costosa
suggestivo
##internet
lena
corrado
##-1.3.
##livan
nintendo
070
##ppolo
capolavori
spasso
qualcuna
equipaggiamento
lasa
arricchito
##attribuzione
moltitudine
##kas
rum
edgar
primari
reperi
terracotta
trasportati
##pé
informata
foce
##bird
eve
bunker
significati
nipp
induce
front
spostata
partiamo
doctor
raccontano
10:00
glasgow
colorate
introducendo
##ascesa
##.23
oslo
zecca
orribili
té
fottiti
viareggio
scendendo
##tell
possiate
formulario
36,
##lip
glori
ostile
sacrifica
ruby
##arie
##costa
ritmi
rooms
brandon
filiali
##erogazione
incomb
pronunciata
bastano
##ño
##hall
conrad
##formazioni
carabinieri
memorizzare
fatico
1800
prag
sforz
proseguì
melbourne
raccogliendo
zara
phare
sepolcro
moltiplicazione
scavo
borghesia
intermediari
##mur
##ffee
(37
oni
abru
vermi
inconveni
history
favorendo
lasciarci
##né
javier
fiorenti
firmatari
##causto
professional
##angeli
4000
dosa
rana
siderurgica
erroneamente
spy
principianti
mtv
midi
##utilità
puerto
accosta
anticipata
esplosione
[4
gau
##esserci
calcestruzzo
valo
falls
##dep
ventesimo
nuvola
conciliare
orgogliosi
servirebbe
##dome
spazia
violet
rhe
autorita
dedizione
##gall
'70
##comple
##infinito
istanza
##locali
##open
babe
boule
cartuccia
disegnata
ricoperta
ì
noia
cerni
tondo
soster
nicchia
verosimi
occorrono
650
spogliato
difendersi
quantitativa
forzato
bagaglia
##irri
paure
bino
smera
divani
leggerezza
passera
incompren
schermata
##disca
##abside
momenta
##consiglio
compositori
##llis
aste
eagle
auguriamo
prigionia
##­2
meg
zitti
sorgono
sentendo
ambizioni
wta
insinu
accessi
##pali
##avanzata
rilevati
svegliata
emoglobina
93,
soliti
##progetto
##ava
dwi
propongo
5-
amazon
ciechi
##comio
sequestro
##wc
##leader
correndo
##riati
respinge
##pm
limitano
challenge
barbie
portero
illumina
ottimizzazione
`
fetta
fuggito
##european
##ried
##dete
attinenti
##anor
eucari
chiederlo
istituiti
##gol
(13
##pelle
obbligati
tranvia
##hin
discutendo
colpisci
rispettando
##ár
amavo
compri
sperimenta
##mulo
##50.
ucciderà
##°,
380
assomma
01.
eth
baden
fanti
volkswagen
tubercolosi
iz
boyd
wilhelm
sammy
conforta
identici
bollitore
##gues
##vette
galaxy
locomotive
trasposizione
trascorre
06.
##ssippi
smet
muori
emerse
preferire
512
cittadella
impac
inizierà
sollevata
seguici
##.(
##01)
colomb
assorbita
fermentazione
friend
##stad
avvertire
##ronico
chelsea
incentivare
text
1978.
##mery
##avorio
##venezia
incerte
tacchi
ubicata
##chs
##hausen
randall
donatore
pubblicita
portland
svantaggi
seguo
postazione
scali
tristi
accresci
convinzioni
route
occupate
bisognerebbe
tiff
##milano
##tecnica
##got
42,
tagliati
simultaneamente
latini
tenersi
ereditato
ministeri
##litico
manufacturing
lai
##tuosi
mangiamo
##pesc
##.26
conferimento
deep
cometa
postazioni
recessione
recuperati
bryan
tucker
prosciutto
arterio
incorporato
##certo
ovale
capanna
##maica
pist
birmingham
##carb
sandro
##.09.
moo
##carri
##1:
1943,
joint
##avere
accesa
alpini
herman
liberata
confezionamento
##nina
suor
antenne
cromoso
albo
etnico
caserma
estetico
circondati
dizione
apposito
costruisce
##7),
bors
formò
amorevole
##informatica
fat
##union
finite
complessivi
##gami
rispettati
##fuoco
fottuti
disabilitato
vetrina
##ey
##anten
jesolo
prege
menzionare
nolan
consumato
cogli
avervi
opposi
outdoor
missionaria
jill
vega
##elettro
##fax
sintonia
climatiche
##ssouri
alfabetico
billboard
##09.
farebbero
visiting
%)
##html
##fanti
civica
mestre
digiuno
bollente
giustificata
bagagliaio
##mr
##tah
90/
riprendendo
pendolari
consigliata
microregione
toyo
beauty
##thon
ambe
vestire
assistita
esprimono
antincendio
onu
##riata
draghi
beneficiato
giocate
##virina
dialoghi
##bara
##zetto
datata
doppiato
550
rilevata
inchieste
rifornimenti
had
curiosa
##scola
##arredo
hudson
riuscirci
scoppi
tenutosi
indossato
presupposti
mobilitazione
pizzo
ranger
##repubblica
dichiarati
buy
delors
lavandino
appassiona
deviazione
##guardi
lussembur
italotreno
verrò
souvenir
maniere
pagando
##astrona
reliquie
sentirai
abbattuto
immersione
##uem
granito
bala
distrutte
##kun
##nesi
gnu
##piede
acroba
calamità
simbolica
ripetizione
dwight
planet
poterla
##inser
##centra
##onamenti
preroga
rappresentativi
##eo
##rimento
aromati
collettività
##torium
##luca
ned
evitato
1,2
neanch
congress
molluschi
notorietà
generosa
considero
imposizione
progettista
##saki
medu
hughes
suicida
trailer
dimentichi
compilation
##commerce
sko
torace
ammazzo
risultava
bé
bacini
pianti
credenze
praticato
staffetta
accademici
menzionate
í
##princip
##/26
##5).
##giate
every
nonni
##gimenti
gaza
prurito
transat
cronache
cioccolata
##rop
##ovvero
##randum
esisti
2000-200
linguaggi
zel
review
estreme
estraneo
difficolta
mucca
perturba
comunismo
##manif
##incredibile
##elba
340
##elevato
##vro
##abbond
##works
hamburger
uccidono
1600
inchiesta
##aosta
brutale
##pat
dilu
rituali
##entroterra
consacrazione
##colano
hugh
resisti
terraferma
rinvenuti
sciogliere
stampabile
cenare
dessert
controller
denunciare
samo
superman
attivazione
portera
unitaria
mum
attribuite
##elu
trasmi
derivata
enterprise
##hed
osseo
wind
##strong
valga
estinzione
partigiani
##appendice
##motore
pagate
-,
robusta
pini
sing
##aragona
latitudine
inv
(198
orsi
piaccio
facevamo
peccatori
soppressa
##redo
affidare
redigere
residenziali
lorena
dilui
magnus
acquisiti
allargata
smas
nazare
robbie
piacerà
23:
celi
iddio
reggis
conservatore
giace
stiro
vitalità
doyle
salite
essenza
muoviamoci
reciprocamente
copa
percy
quass
sciolto
##avar
##ampio
jedi
1945,
##bagno
##paper
podere
melodia
##cambia
fusto
##attrazione
##leen
cecilia
chiarito
misurata
brooke
concorda
prioritaria
##egeo
leggo
delega
arno
vigili
congelamento
sperimentato
conservano
##illusione
##ners
disto
trump
panini
abbondanti
rss
mite
##valore
##chera
##wie
vedranno
cuscini
premendo
recettori
vacci
fattibilità
ulivi
ammessa
44,
##iddio
pedo
dentista
grasse
(196
##etilene
santos
pulsanti
contribuenti
ida
eden
##castle
mutamento
serratura
##sub
movimentazione
siciliano
##ales
disprezzo
pubblicitaria
step
cun
creek
gonfiore
prontamente
vivaci
consacrato
trascrizione
##vil
disatti
discarico
repubblicani
herbert
rischiano
##esplorazione
subordinato
importare
promul
##cyclo
lobo
bennett
protettore
3%
emin
malo
assetto
##geme
codifica
##-07
fuor
barista
montreal
##renz
hoff
volgare
provinciali
##stand
comandato
aiutera
prenderci
soprannominato
##biografia
indagando
licenziata
##gurt
televisore
sentimentale
38,
any
alon
razziale
bonaparte
sosteneva
##.7
allie
incendia
##voloso
bonifico
moza
quarter
propulsione
identificata
rotoli
prototipi
medioevale
impediscono
##rell
parado
narrativa
##logicamente
succedette
##ciando
dimostri
affrontati
##été
pedonale
australe
cassetti
memorial
championships
clown
panna
there
andavo
decollo
nederlands
assedio
insignito
iniziati
sprecare
fiss
pozzi
cister
ingiusta
socialdemocra
3-1
##spira
rigoroso
disaccordo
sequel
sconfiggendo
##»;
fono
sospensioni
##-50
abraham
canadesi
notiziario
##condu
carson
atlantic
sapranno
##eratamente
giochiamo
risolti
##categoria
burocrazia
##accre
##-(
##ece
cadono
fumi
bimba
double
cercarlo
contemplati
##uz
dü
pile
proibi
visuali
rientrato
##kor
ow
goff
fale
##impera
ottico
rubino
costituisca
##ulotte
lassu
infermi
approfondimento
##fase
##mentò
bura
bombo
teneri
gasp
pugnale
marcatura
leggendario
ducati
usarla
consigliare
klein
rubin
preriempita
##hari
##ttosio
parquet
trampolino
impossibili
##baleno
nani
script
involon
avvenuti
battenti
cambogia
metalliche
significava
fortificazioni
guidò
incondi
autostrada
offrì
altari
addominale
governatori
##zard
bagn
bangla
charter
luminosi
intona
pioniere
##utile
talpa
uscirne
explorer
gis
##accelerazione
correlazione
disputate
sorridere
gasso
cucine
calorie
arredo
chester
steroidi
ciclisti
porcellana
supercoppa
disciplinano
vogliano
itunes
scooter
fl
lab
##renne
puntato
tenermi
##ffato
##risca
coul
ghost
stoviglie
##lag
león
nativo
immersi
stringere
atmo
temporali
cuscinetti
##vos
##ccoli
beatles
##forni
erbo
finchè
trovino
centesimo
cuneo
persero
rallentamento
terribilmente
##ddy
fischer
trading
capiscono
accessorio
apprezzata
generosità
##pd
##.24
stupide
orientato
cazzi
lucky
manette
osservatore
##rro
##whi
##.2.1
editor
lapide
promozionali
##1987
30.000
calciatori
32.
capienza
preoccupante
reggia
lavorativo
nemiche
affresco
1908
ritenendo
##/82
1966,
preparo
risalita
certificazioni
concentramento
muoia
rinne
##borough
##if
##senale
funzionando
privilegiato
festeggiamenti
dispetto
ricoperti
supervisore
morira
sobbor
•00/80
personal
euromediter
enciclopedia
daph
moltissime
respirazione
##indietro
fodera
felicita
venditori
##bee
coglioni
##regolamento
catastrofi
sopravvive
rispo
familia
autonome
somalia
dame
##sfere
judy
##giustizia
mediamente
predatori
##allesti
riempimento
eure
##ordinanza
matematico
##tzer
patty
piastri
rotondo
imparando
mann
##indiri
traiet
ambedue
rimandare
crudel
roberts
mars
1944,
verifi
##estonia
disinf
quarant
siglato
interagire
suggestiva
rispondendo
allontanarsi
##zati
##court
mollare
##nah
denver
traversa
viaggiato
cercherà
rinnovabile
visualizzate
contest
indeter
karma
farmacocinetica
joa
rush
oramai
navigatore
cecoslovacchia
##uil
esecutiva
centenario
spontaneamente
espulso
ortofrutta
nami
alluv
dimentichiamo
yen
##tibile
gemelle
riguardare
autonomamente
##fabb
1-0
aspirapolvere
confis
operante
##feno
pensò
figliuolo
flessione
opportunita
coltivazioni
cassie
accordare
pasticceria
aber
figata
respon
universali
##urg
##padre
sema
taka
strumentale
##/83
##voco
crane
##bolario
quartetto
goditi
riscon
notifiche
timori
zucca
apparato
shelby
benigni
millenni
aumentate
publi
fiducio
emettere
opportuni
##lander
soglie
##rela
stars
stante
asciutto
rispettate
jacopo
indirette
passarono
rogers
duratura
ordinamento
ortofrutticola
(“
##mbico
scambiato
fé
##eras
eun
lola
##rotta
montati
modulare
##’.
ché
##fault
##cabili
immersioni
pipi
invidia
messicana
lego
occupar
##pop
##tury
ghiaia
##exe
porzioni
cognato
perverti
culmine
duchessa
ecologici
##ziò
trevor
promotori
distorsione
extre
holland
trascin
sanguino
direttrici
bros
veglia
##.8
scotti
pacific
identiche
continueremo
foggia
impazz
##trito
manovre
salisburgo
grazioso
descrisse
40.
map
lyon
pensavano
autostrade
marce
scossa
ardente
nino
1964,
interferire
terminologia
sandy
sinagoga
costituiva
emette
matita
domesti
dinosauri
dk
##chill
penetrare
##ader
cucchiaio
##tage
##tava
[...]
